[PAD]
[UNK]
[MASK]
[CLS]
[SEP]
!
"
#
$
%
&
'
(
)
*
+
,
-
.
/
0
1
2
3
4
5
6
7
8
9
:
;
<
=
>
?
@
[
\
]
^
_
`
a
b
c
d
e
f
g
h
i
j
k
l
m
n
o
p
q
r
s
t
u
v
w
x
y
z
{
|
}
~
¡
¢
£
¥
¦
§
¨
©
ª
«
¬
®
¯
°
±
²
³
´
µ
¶
·
¹
º
»
¼
½
¾
¿
×
ß
æ
ð
÷
ø
þ
đ
ħ
ı
ł
ŋ
œ
ƒ
ɐ
ɑ
ɔ
ə
ɛ
ɡ
ɪ
ɹ
ʁ
ʃ
ʊ
ʌ
ʒ
ʔ
ʞ
ʰ
ʲ
ʻ
ʼ
ʾ
ʿ
ˆ
ˈ
ˌ
ː
˙
˚
˜
α
β
γ
δ
ε
ζ
η
θ
ι
κ
λ
μ
ν
ξ
ο
π
ρ
ς
σ
τ
υ
φ
χ
ψ
ω
а
б
в
г
д
е
ж
з
и
к
л
м
н
о
п
р
с
т
у
ф
х
ц
ч
ш
щ
ъ
ы
ь
э
ю
я
і
ј
ћ
қ
ө
ա
ե
ի
կ
յ
ն
ո
տ
ր
א
ב
ג
ד
ה
ו
ז
ח
ט
י
ך
כ
ל
ם
מ
ן
נ
ס
ע
פ
צ
ק
ר
ש
ת
،
؟
ء
ا
ب
ة
ت
ث
ج
ح
خ
د
ذ
ر
ز
س
ش
ص
ض
ط
ظ
ع
غ
ـ
ف
ق
ك
ل
م
ن
ه
و
ى
ي
پ
چ
ڠ
ڤ
ک
گ
ہ
ی
۞
۩
अ
आ
क
ग
च
ज
ड
ण
त
द
ध
न
प
ब
भ
म
य
र
ल
व
श
ष
स
ह
।
ক
গ
জ
ত
দ
ন
প
ব
ম
য
র
ল
শ
স
হ
க
ச
ஜ
த
ப
ம
ய
ர
ல
ก
ค
ง
จ
ช
ด
ต
ท
ธ
น
บ
ป
พ
ม
ย
ร
ล
ว
ศ
ส
ห
อ
ะ
า
เ
แ
๑
་
ა
ე
ი
ლ
ო
რ
ს
ᄀ
ᄁ
ᄂ
ᄃ
ᄄ
ᄅ
ᄆ
ᄇ
ᄈ
ᄉ
ᄊ
ᄋ
ᄌ
ᄎ
ᄏ
ᄐ
ᄑ
ᄒ
ᴡ
‐
‑
–
—
―
‖
‘
’
‚
“
”
„
‟
†
‡
•
…
‰
′
″
‹
›
⁄
⁰
₩
€
₱
₹
℃
ℓ
™
↑
→
↓
∆
−
√
∞
≈
≡
≤
≥
⋅
〜
あ
い
う
え
お
か
き
く
け
こ
さ
し
す
せ
そ
た
ち
っ
つ
て
と
な
に
の
は
ひ
ふ
ほ
ま
み
め
も
ゃ
や
よ
ら
り
る
れ
ろ
わ
を
ん
ア
ィ
イ
ウ
ェ
エ
オ
カ
キ
ク
ケ
コ
サ
シ
ス
セ
ソ
タ
チ
ッ
ツ
テ
ト
ナ
ニ
ノ
ハ
ヒ
フ
ヘ
ホ
マ
ミ
ム
メ
モ
ャ
ヤ
ュ
ョ
ラ
リ
ル
レ
ロ
ワ
ヲ
ン
・
ー
一
丁
七
万
三
上
下
不
世
东
中
主
之
九
事
二
五
井
京
人
仁
仙
代
令
仲
伊
会
伯
位
何
佛
你
使
侯
保
信
偵
傳
元
先
光
全
八
公
六
共
兵
内
军
出
刀
分
利
劉
力
加
動
勝
化
北
区
區
十
千
午
华
南
博
原
友
口
古
台
史
司
合
吉
同
名
后
向
君
吳
周
命
和
唐
商
四
国
國
園
土
地
城
堂
場
士
壽
夏
外
夜
大
天
太
夫
女
如
妃
姬
子
字
孝
学
孫
學
宇
安
宋
宗
官
定
宣
宮
家
宿
寧
寶
寺
将
小
少
山
岳
島
崎
川
州
工
市
帝
師
常
平
年
府
康
廣
建
式
弘
张
張
後
徐
御
德
心
志
忠
思
意
愛
慶
成
我
戦
戰
所
手
探
政
教
敬
文
新
方
於
族
日
昌
明
星
春
昭
時
景
書
曹
最
會
月
有
朝
期
木
本
朱
李
村
来
東
松
林
株
梁
楊
楚
業
樂
橋
機
歌
正
武
殿
氏
民
水
永
江
河
治
泉
法
波
洋
洪
流
海
清
港
漢
濟
火
無
物
特
玄
玉
王
理
生
田
男
界
白
百
的
皇
目
相
真
知
石
社
祖
神
福
秀
秋
秦
空
立
章
第
節
紀
紅
紫
經
縣
羅
美
義
老
者
聖
胡
臣
自
興
舞
航
良
花
英
華
萬
葉
藤
虎
行
衛
西
見
親
言
記
語
谷
赤
起
越
趙
路
軍
通
道
遠
那
郎
郡
部
都
鄭
里
重
野
金
長
长
門
開
關
阿
陈
院
陳
陵
陽
隆
隊
雄
集
雪
雲
電
青
韓
音
風
飛
食
香
馬
駅
高
鬼
魂
魏
麗
黃
黄
龍
龙
ꦏ
ꦠ
ꦤ
ꦧ
ꦩ
ꦫ
ꦭ
ꦱ
ꦺ
꧀
ﬁ
ﬂ
ﱠ
﷓
ﷺ
ﹶ
ﹸ
ﹾ
ﺃ
ﺇ
ﺍ
ﺎ
ﺑ
ﺒ
ﺗ
ﺪ
ﺮ
ﻓ
ﻟ
ﻠ
ﻢ
ﻣ
ﻤ
ﻥ
ﻦ
ﻧ
ﻨ
ﻪ
ﻬ
ﻭ
ﻮ
ﻳ
ﻴ
！
（
）
，
：
～
￼
##o
##e
##t
##m
##l
##d
##r
##n
##a
##b
##g
##i
##p
##w
##k
##u
##s
##h
##0
##4
##6
##c
##y
##z
##2
##9
##j
##f
##°
##v
##7
##5
##±
##q
##x
##8
##3
##1
##ᅵ
##ᆸ
##ᄉ
##ᅮ
##ᆯ
##ᄋ
##ᅳ
##ᅡ
##ᄌ
##ᄒ
##ᄆ
##ا
##ن
##ى
##º
##ﻠ
##ق
##م
##ي
##र
##म
##ो
##ل
##ـ
##ه
##ذ
##ø
##د
##س
##カ
##サ
##ス
##ロ
##ー
##リ
##ン
##ク
##ラ
##ッ
##シ
##ュ
##ᅢ
##ᄂ
##ᅥ
##ᅯ
##ص
##ᅱ
##ᄇ
##ル
##ش
##ت
##ر
##ط
##ف
##し
##め
##ी
##त
##ج
##ᆷ
##ᆫ
##α
##ν
##ω
##خ
##ك
##た
##く
##な
##い
##ع
##ة
##а
##р
##и
##м
##н
##τ
##λ
##ι
##ς
##ე
##ს
##ლ
##ი
##ა
##れ
##る
##ᅩ
##ᄅ
##ð
##ث
##و
##￼
##×
##л
##ь
##с
##т
##о
##ש
##נ
##ᄃ
##ᄀ
##ʻ
##ظ
##ﺪ
##บ
##ᆼ
##і
##в
##е
##ᅧ
##ᅪ
##ч
##к
##я
##¹
##ヘ
##ア
##イ
##ト
##χ
##η
##ม
##อ
##ง
##ส
##น
##व
##द
##ल
##ш
##ᆨ
##ि
##न
##э
##´
##υ
##ρ
##μ
##д
##タ
##て
##ب
##か
##も
##お
##ح
##ک
##ی
##đ
##γ
##ε
##ہ
##æ
##フ
##ᅴ
##г
##ъ
##−
##¬
##ﻪ
##ض
##ェ
##コ
##ム
##ꦏ
##꧀
##ꦱ
##ꦫ
##ꦤ
##ы
##ο
##θ
##κ
##ı
##ʰ
##प
##श
##ᅦ
##ᄑ
##ﬁ
##ב
##ə
##ह
##क
##י
##ע
##ר
##א
##ל
##ा
##य
##β
##ᄎ
##³
##स
##រ
##ס
##ﺃ
##ค
##ก
##า
##ร
##ห
##ช
##ᄐ
##แ
##ด
##σ
##φ
##ו
##צ
##ם
##দ
##য
##া
##ন
##ɔ
##ˈ
##च
##ল
##ে
##শ
##ハ
##ː
##ʃ
##ц
##ħ
##ʲ
##ɪ
##ɐ
##у
##б
##⁰
##ध
##δ
##ζ
##ᄏ
##ᅬ
##ز
##π
##ψ
##ł
##כ
##ד
##ג
##ナ
##מ
##ח
##ת
##п
##²
##ာ
##ま
##х
##غ
##ן
##ﱠ
##ß
##ﻓ
##ꦠ
##ꦩ
##ˌ
##ɑ
##チ
##ャ
##ﹾ
##ﻟ
##ﹶ
##ﺎ
##ט
##з
##þ
##ड
##ว
##ڠ
##ʼ
##ज
##ה
##ק
##ﻤ
##ŋ
##つ
##き
##ᆺ
##う
##え
##ん
##の
##ξ
##ж
##˚
##қ
##ɛ
##ニ
##こ
##っ
##ら
##に
##は
##µ
##ﻦ
##ʿ
##け
##ﻣ
##ﺮ
##ᄄ
##œ
##よ
##ソ
##ء
##ক
##ﬂ
##ᅭ
##⋅
##ツ
##す
##פ
##℃
##ะ
##ป
##ย
##®
##マ
##ᅨ
##ர
##ய
##ா
##ケ
##ம
##ி
##テ
##ィ
##ា
##キ
##と
##ব
##ミ
##レ
##จ
##™
##ு
##க
##த
##ե
##ի
##چ
##ڤ
##わ
##რ
##ʁ
##や
##ち
##ᅲ
##み
##เ
##ல
##ʌ
##さ
##ふ
##り
##¼
##ј
##ি
##ꦺ
##せ
##گ
##ᅣ
##ꦭ
##ꦧ
##ա
##ろ
##ᄈ
##ʔ
##☆
##ր
##յ
##ך
##ᴡ
##を
##ล
##พ
##ต
##щ
##ల
##ग
##ʊ
##ப
##ब
##€
##হ
##ী
##ф
##ष
##ю
##ण
##ﺍ
##あ
##ז
##ノ
##オ
##→
##ท
##ʒ
##ワ
##᮪
##ச
##ﻴ
##÷
##メ
##ヤ
##ﻮ
##ﻧ
##ศ
##ᨆ
##ᨕ
##ర
##ョ
##ธ
##～
##ﻢ
##ʾ
##ম
##ɡ
##ո
##ө
##½
##پ
##տ
##গ
##র
##ᨚ
##ᨙ
##セ
##ゃ
##そ
##ﻬ
##ウ
##ར
##կ
##ﻭ
##⁄
##ˆ
##∞
##♭
##ﺑ
##¾
##ు
##≡
##ホ
##≥
##भ
##ћ
##ヒ
##エ
##モ
##ɹ
##ం
##ひ
##√
##স
##ƒ
##ª
##﷓
##★
##জ
##○
##©
##↑
##ত
##ն
##↓
##¥
##ᨑ
##ほ
##প
##─
##ო
##¢
##ஜ
##ᄁ
##∆
##£
##ᨒ
##ᨈ
##ᨅ
##ヲ
##ﻳ
##ﻥ
##≤
##ﺒ
##ﺗ
##ᄊ
##₩
##ﻨ
##♥
##█
##ﹸ
##ʞ
##˙
##►
##¦
##≈
##ℓ
##◦
##●
##अ
##♦
##an
##er
##en
##ar
##ang
##at
##ah
##al
##ak
di
##as
##am
##in
##em
se
men
##un
##kan
##ya
##el
##tu
yang
##ad
##si
ke
dan
##ap
##on
##ai
ber
##il
in
##eng
##is
##ik
ter
##ta
per
##ur
##ari
##us
##ag
##ing
##nya
##es
##um
##or
##bu
mem
##ti
##ul
##ara
##id
meng
##ir
##ada
##uk
##ek
##ga
##ol
##ung
##it
##akan
##asi
ini
un
dari
ad
##engan
dengan
##alam
##tuk
##et
##im
an
##alah
pen
mer
##ud
##ama
##ut
##om
dalam
untuk
pada
seb
##up
##eb
##ian
##aw
##ab
##ih
pem
pr
itu
##adi
##eh
##uh
##aj
##ia
##anya
##eg
tid
##per
tidak
adalah
##esi
##atan
##and
##se
##angan
##ay
##aya
##ain
##ok
##agai
##ter
mel
ju
##amp
##ed
##ukan
or
sel
tah
menj
peng
##aan
##ber
##tr
al
##elah
ol
mas
##but
20
##ali
bah
juga
##apat
kar
oleh
##atu
sem
tahun
kem
##ent
##end
sebagai
kep
##eka
meny
##pat
##ua
##wa
sek
ak
mereka
akan
##os
##ita
##isi
##ana
ind
##ata
##ant
##od
##ub
ata
##sebut
orang
atau
ser
menjadi
##ati
19
##ika
##ong
##asa
##ep
##lah
##ac
##ena
##ot
##uan
##og
##ahan
bag
##amb
bar
kel
##ri
##usi
##op
pert
##any
memb
as
##aran
ap
tersebut
ia
ker
##angk
ar
##ib
##angg
##iri
ada
##anj
karena
##int
is
##ala
lain
mend
200
##ebih
##api
##inya
##alan
bel
neg
##alu
##ota
har
##ingg
telah
kon
##upakan
sa
##cara
dapat
merupakan
##emb
ag
##esia
satu
##ip
indon
lebih
##ikan
indonesia
dik
##asan
##apa
##esar
##tem
pend
##perti
sp
sej
##tas
##ew
seperti
saya
kita
kom
bis
##ilik
##udah
bahwa
##sa
dis
am
tim
pol
dil
sebu
set
pas
su
pel
##oh
sebuah
##uar
berb
##ingga
tet
##akukan
##ungan
##ja
##anyak
saat
##akar
ang
menc
##ind
si
##aik
para
kepada
##ic
tak
ant
##asil
##gun
##ob
##ingk
##orang
berk
bisa
dip
mak
##ra
man
##asih
kec
tem
##had
beb
kes
th
secara
##aja
ked
##aman
##onal
hal
##hir
##uj
pemb
sudah
##agi
dib
dia
##au
sed
ket
bi
negara
##ov
##da
pemer
par
nam
##osi
##awa
banyak
##iliki
sang
dit
setelah
besar
peny
hanya
seorang
bagian
da
kam
##arkan
anak
ben
bers
tan
##yar
um
##angkan
##unya
##akarta
baru
##erapa
fil
tr
##ch
beberapa
memiliki
hari
sen
war
##imp
spesi
##tus
des
kota
keb
dir
namun
dua
masih
membu
sep
terl
pemerint
##man
rum
st
##idup
ti
ut
##erah
ek
##gunakan
##apan
spesies
##atakan
##han
##00
##uran
terj
##tur
terb
harus
##ungk
##itas
ka
##ima
dem
##aku
seh
samp
dim
mar
pertama
##umlah
##akat
jakarta
re
pul
##ini
bagi
atas
kek
antara
##unan
201
wak
##orm
##emp
kemud
sangat
pers
tent
kr
pe
salah
rumah
##ulan
##aga
ch
kemudian
##urut
##atkan
##eri
##ni
mul
member
memper
##anc
tetapi
##gi
##yat
##usia
mengh
##unia
##ingan
sebel
send
##uhan
en
##uti
##lam
##hadap
kor
sebelum
##den
diper
##ihat
##unj
##inan
##yarakat
ses
##gan
tingg
dunia
kata
##pr
ab
pern
berd
masyarakat
##awan
##tor
sama
terd
##aks
ketika
angg
pun
kh
nama
hingga
##arang
the
##ug
##utan
##angs
terhadap
ing
lagi
did
##entu
##iv
sendiri
##atang
sum
kemb
baik
ku
##itar
##asional
sis
##ili
berh
pemerintah
tempat
##uas
##engah
kali
daerah
sampai
jika
sur
serta
##tif
##ilan
##ina
##tan
##li
wil
##enal
##mas
menurut
mes
akhir
islam
berl
##usah
semua
selama
##arah
##ec
pal
desa
##itik
kembali
terjadi
kal
bert
hidup
membuat
il
buk
us
##ilih
bang
##ui
##ani
sekitar
seti
tentang
saja
din
air
musi
so
te
aw
##ont
anda
##di
umum
kedua
##apkan
jalan
gen
ger
##anda
bukan
waktu
##na
keluar
##ensi
##ka
##inta
##le
##ayu
melakukan
apa
inter
##olog
dilakukan
lalu
maka
##ump
mah
##aikan
br
##aitu
##aca
terk
belum
pes
##ayah
dep
sehingga
warga
sh
##ban
##uruh
##und
kami
##to
##era
film
mal
me
em
bu
##esiden
##bang
bahasa
##entara
##ukum
10
mendapat
##enc
sementara
anggota
##me
masa
tangg
ri
##iran
##mi
##angsung
manusia
bersama
##ju
sejak
wilayah
199
min
##do
##omp
##olah
barat
##aki
art
yaitu
##ulis
jawa
##antu
diri
suk
##eker
##anjang
keh
presiden
berp
##ila
pernah
##ahkan
tiga
##sia
lainnya
##egi
gr
mat
de
##ersi
##ki
##lik
##amatan
##ow
##alui
##oleh
##ustr
mus
la
hukum
18
##oy
perl
##etak
##ingkat
kap
##alis
kas
##ilai
##alnya
tapi
kur
##onom
suatu
##alau
tengah
##alia
##eli
selain
perk
##elas
##olong
##est
melalui
##annya
##ihak
##tai
seg
timur
bulan
##pa
##yah
setiap
berbagai
komp
##ungg
pl
tel
##asanya
##aksi
##unc
mulai
kl
amer
negeri
berm
##ris
memp
##oduk
im
sesu
##ans
li
##ori
allah
hasil
##af
##rop
pihak
menggunakan
tinggi
berj
of
##ungkin
res
##idikan
mener
##uduk
terp
##uda
##ting
##buh
##ibat
##ram
sul
##etah
pus
##akit
##ons
##uru
##oc
##tikan
terg
##ev
##teri
##utus
ac
mengg
##ae
##anan
##paten
tek
##awah
##mu
kabu
berada
perm
aku
amerika
kayu
mis
fr
agar
med
tetap
ma
kelas
##ikat
rp
##ebab
##insi
sekali
12
sekolah
kabupaten
##ambil
selatan
kons
cer
biasanya
partai
##usan
kecamatan
kalau
##ij
band
##ologi
pros
##form
##awat
##ank
##ajar
sistem
##ikian
##agian
bahkan
politik
##of
##la
hak
cuk
intern
tanah
##unjuk
##apai
termas
sejumlah
termasuk
##engk
##arnya
tanggal
memberikan
##upun
kej
dih
disebut
seluruh
##ami
luar
and
bud
digunakan
sal
##eda
##atif
diter
paling
tu
at
##eter
tanpa
nasional
eks
tert
jumlah
pendidikan
kat
15
put
demikian
ik
sekarang
##wan
masalah
mungkin
##bit
ken
mengen
##ikasi
##ist
##ikut
##ig
##tua
##anjut
rak
cukup
mod
##akhir
mengatakan
##alkan
##uc
##idang
jadi
##mana
ters
memang
11
masing
diber
##engg
##ola
##auh
sy
kepala
##entuk
##akin
proses
up
##usahaan
fam
beras
##ard
##tian
pad
##onomi
##ompok
##ulu
agama
und
##aian
makan
##agu
str
kecil
perusahaan
produk
el
ditem
dij
utara
##ode
##angka
kini
##ebabkan
benar
terus
lap
##ilah
##ogram
kasus
cara
utama
##aknya
masuk
##asis
polisi
##ubungan
##impin
melihat
##iter
bangsa
jam
##ember
mana
ins
##ma
karya
pusat
rakyat
keluarga
##ampu
##egitu
keti
##awab
##abat
akhirnya
##isasi
##ej
begitu
dibu
ordo
##oid
##ekerja
##asar
korban
sebelumnya
ah
mil
##awasan
dew
sedang
buku
##ubah
bur
##tiv
##uli
genus
ul
dr
pengh
bawah
pak
jen
langsung
lama
ru
uj
ob
gel
penc
prov
akibat
sebagian
##angi
ib
baca
bat
##asarkan
dic
univ
ibu
terdapat
bentuk
juta
##ea
##tul
maj
tuj
##antan
kelompok
tok
tur
sosi
##usus
sc
##aris
lok
pemain
famili
##ula
gun
ekonomi
menem
##unyai
ketua
##uni
##formasi
ingin
##umi
perlu
tekn
bl
##buhan
##disi
kum
sedangkan
bal
##sep
mempunyai
##ha
pan
##engar
bern
dig
##alat
##fa
khusus
awal
program
bad
##ekat
mampu
ingg
sumber
tergolong
##ender
kerja
perang
##ayaan
posi
aster
sah
##st
panjang
meningg
16
dikenal
penting
mengenai
provinsi
pula
penduduk
17
##tri
tamp
lemb
##akah
sk
##uari
menteri
##askan
##anggap
198
bagai
##upa
perd
jep
##ono
##tar
berasal
##tera
##isme
##ro
berikut
jer
penj
inggris
lagu
##yak
kamp
universi
musim
ilmu
##ublik
empat
##itan
##oda
000
14
asteroid
on
datang
com
perj
##fat
mencapai
id
sup
13
organ
##etahui
raja
##din
sil
jelas
mengaku
menyatakan
##aranya
##alami
##tim
pener
dar
##mad
##adaan
##eta
##lim
undang
berhasil
pet
depan
ir
terletak
ii
laut
##angkat
##angun
ok
##aksan
kumbang
dpr
kawasan
##araan
fak
##arik
##omb
perb
sering
##ira
sebesar
komun
##eksi
keraj
berdasarkan
##tisi
menyebabkan
anim
selalu
serikat
##uhi
wan
nya
##ond
##utu
gu
jepang
##uka
##emen
trans
30
##embangan
##ungsi
##untu
jenis
alam
harga
lalat
sejarah
##ny
lab
rep
2009
pos
##atih
##bul
##aha
bahan
bidang
angk
kehidup
terakhir
kurang
##eks
gol
suara
##perasi
##ebut
##ort
##ura
berg
##idae
jar
sat
##hi
jauh
##ukung
nilai
kerajaan
##unt
had
##ail
surat
##ahir
seri
met
nov
tuhan
kol
mata
bersi
kondisi
##ci
##ilihan
##ais
kegi
sub
ji
peremp
sebab
lima
pemerintahan
hubungan
semakin
king
mendapatkan
##uncul
kegiatan
malam
dok
##udi
tubuh
ud
2008
##ku
kehidupan
mur
##unjukkan
##ual
perempuan
##ern
kant
to
aceh
tum
aj
tangan
hati
bekerja
adanya
rasa
le
bank
berbeda
acara
sw
ten
kend
##imb
keter
uang
tib
pasukan
wanita
kab
kad
##urkan
ped
sosial
sakit
pulau
sung
##dom
sesuai
pat
##ers
be
##tug
menerima
##atian
menyel
dasar
col
ram
##utusan
##air
197
muda
##andang
##alaman
asal
##anti
##fi
##tik
lingk
##uri
##ine
##isan
kapal
##ait
cal
muh
kan
##atur
biasa
kaum
bab
pember
mengalami
##eran
bagaimana
##buk
ur
##ril
bila
kebu
apakah
muncul
jan
##angga
ist
##ulai
belanda
tahu
ot
pasar
##ambah
##uatan
##erang
keber
##ikuti
##lo
tinggal
rek
sm
##asiswa
##eja
sungai
25
memas
badan
##fer
##iau
##pada
terc
##olak
for
tingkat
kingdom
universitas
alb
seben
arth
it
##min
filum
informasi
musik
196
boleh
barang
ribu
memberi
##okr
bumi
##res
##az
##utama
animalia
##nis
pt
##antai
##war
##epat
tiba
ng
##ikit
##obil
##anding
abad
ko
sesuatu
terdiri
tind
dirinya
lar
##re
mau
##uga
ny
sab
##bitkan
##sec
##tv
bermain
##sed
sedikit
##enda
##uanya
sar
prof
194
perc
usaha
##usaha
sam
po
agus
##ho
kontr
##entukan
insec
##ropoda
arthropoda
internasional
insecta
misalnya
penggun
##apun
sin
dianggap
bak
##istr
##no
yak
ne
##kip
gereja
sebenarnya
menunjukkan
membawa
##oba
2007
mahasiswa
##isti
no
##andingan
##angunan
tujuan
##ator
dekat
terutama
bin
mad
lay
mobil
sempat
bernama
daripada
memer
mo
##rah
jerman
mengambil
##adilan
ras
meminta
perub
pembangunan
laki
##arti
cont
##ikir
##ampir
bantu
segera
af
jat
##kipun
meskipun
##embang
##ry
muslim
ef
bun
batu
dana
ham
##aksa
kantor
belak
pi
rom
nom
##ly
##uhnya
tokoh
##ancis
21
##impinan
perubahan
sing
pin
##ongk
erop
perh
pesawat
##ilang
luas
##kannya
muham
api
bay
mencari
##ela
##va
jawab
ketiga
budaya
ged
makanan
##abi
penyel
teg
jal
jiwa
##ey
##amanya
##ohon
##iman
##ungi
malay
##ajaran
##ation
album
##olusi
pand
lembaga
##gab
##ment
memen
posisi
##yataan
keputusan
udara
guru
##oran
2010
wakil
sik
organisasi
##encana
##ses
berarti
##emuan
eropa
sctv
militer
tug
klub
kerus
bo
##iaya
##umen
lingkungan
abd
##isah
merasa
##ahari
lahir
##asikan
persen
ro
##tuh
##irikan
##iz
media
##ukul
meski
dewan
##uju
hampir
yakni
##titu
mudah
##amat
##atus
ditemukan
new
pop
op
ilmi
##adisi
##oni
malaysia
##ko
contoh
ilmiah
berlangsung
##angkap
##acam
diterbitkan
industr
##ebr
keseh
gag
mengel
pertandingan
int
##aka
ayah
##akai
2006
umumnya
ruang
menuju
##oto
##ef
tradisi
banj
##angkah
##erta
##tuj
pemimpin
belajar
##abu
mantan
kekuatan
bola
membantu
jum
##amanan
umat
peneli
22
mu
pang
menghad
industri
kebij
##ongan
keadaan
##alitas
##ilis
seni
bantuan
rah
jangan
ev
say
##ton
tni
gerakan
sebanyak
milik
##ach
##ca
##edi
pa
kesehatan
data
##gabung
unit
##atat
##anggung
24
tugas
##urn
del
kemen
##alahan
##ack
segala
##ikiran
bek
berubah
alat
kamu
ge
##anyakan
jalur
gl
agung
##elar
##ark
menemukan
aksi
##ord
keras
demokr
##nyata
matahari
ki
ternyata
##asilkan
kuat
##antung
##ambang
gedung
##eo
##abila
nas
ali
penulis
##inggu
diberikan
##ve
23
##erita
ayat
saud
##por
lokasi
mon
menyebut
##tulis
##ajak
##aksanakan
##atas
car
##aji
##ekerj
stu
##isian
suku
##gaw
mati
##adar
apabila
195
##uasaan
##arga
alasan
cepat
##tugas
rat
buah
gamb
disi
tand
sas
##adakan
menulis
tulis
juli
dibuat
menit
##pl
##ess
mag
##tober
sumat
may
##ajah
##jata
juni
tertentu
##adian
beliau
teman
minyak
##tember
bertem
##uasa
##irim
melawan
##kah
tentu
upaya
kebijakan
januari
penyakit
tindakan
##yc
tepat
##th
eng
##intang
austr
september
##takan
persi
mew
jab
kun
##alaupun
mengikuti
100
kerusakan
bus
menik
peristi
##ampuan
##uki
teknologi
##bar
wah
kalim
hutan
##land
sese
nomor
lip
resmi
tua
cerita
mei
calon
##ainkan
memilih
##lukan
daya
rata
menarik
##sir
##ell
penuh
##ass
##endah
gunung
laba
##epas
punya
sol
rel
##ektur
desember
meninggal
peristiwa
berat
##tuhan
ya
pendek
sepanjang
##ibatkan
agustus
##su
april
dah
##ore
##arakan
cat
##ingkatkan
##elaskan
##te
##bangan
bangunan
##bern
terbaik
mengk
seseorang
batang
menjalan
pemilihan
kepol
hit
##ullah
raya
##alik
muhammad
oktober
##ill
kp
##ity
##mp
prancis
plan
inf
er
ikut
yah
krist
dimana
situ
kepolisian
uk
ed
perkembangan
2004
##entr
km
langkah
perjalan
ph
pertemuan
co
aktiv
pukul
fl
##aih
berjalan
##urus
##gus
kemampuan
##awi
maret
menolak
##jo
itulah
##uarkan
##ebar
##son
bali
##embangkan
arab
ahli
kul
gubern
walaupun
her
stasi
diketahui
kereta
##anto
##empatan
zaman
jender
27
terbu
gubernur
##udul
sisi
##arat
terlalu
form
##ampaikan
es
##ekan
kesel
##tempat
enam
serangan
pasti
cole
##ich
##ahal
por
kekuasaan
##tra
menging
jenderal
ide
##ajib
26
stasiun
##ce
setempat
##wak
november
terlihat
##inal
##ungkinan
popul
##anian
inv
##inasi
##ainya
arah
terkait
febr
sikap
berkata
2005
##oa
joh
pot
sus
28
##ftar
nabi
maupun
turun
keper
vi
pasal
sepak
dinas
operasi
pimpinan
kemungkinan
sun
##ez
##uskan
##atangan
rev
##angnya
ung
##all
##uman
##ens
##anjutnya
siapa
##optera
50
##kir
##osa
##uktur
padahal
##ulkan
rencana
india
##etahuan
peri
lem
republik
##ou
##tab
keamanan
naik
##ektif
asia
massa
manaj
perjalanan
##pati
membangun
##unuh
##tual
##ainan
##jid
kebutuhan
produksi
konf
pekerj
liga
tenaga
mand
coleoptera
lew
soal
terkenal
mengetahui
berupa
##akkan
berusaha
gar
##artem
berkembang
hi
berita
##inc
##okok
komisi
penelitian
tot
prot
##po
prib
pap
meninggalkan
##ate
##usun
isra
##iptakan
kaki
kitab
ialah
sana
pekerjaan
merah
##pur
##aria
dibanding
##atis
studi
##aturan
kont
meningkatkan
##men
minggu
tar
##buatan
##sur
##tuhkan
##ona
##utih
##ujud
bul
hab
perg
kalangan
pengetahuan
bisnis
kristen
##arian
##enang
bintang
pro
larva
duk
ay
bandung
der
semb
san
selanjutnya
##ewas
##lan
katanya
mili
kejadian
log
##qu
siap
pej
##otor
amb
biaya
meter
dulu
jaringan
##ade
##sis
membentuk
##ge
wib
senin
publik
hend
##one
darah
##ulang
##erd
##usnya
israel
liputan
tanda
##artemen
##sedia
##iks
belakang
senjata
kematian
konsep
mark
kesempatan
##ungkan
angkatan
pengg
##oro
penggunaan
rabu
istilah
##tum
##arap
pekan
peran
rendah
##orkan
tengg
tip
##erahkan
putih
kak
sumatra
##iah
perp
##untut
pagi
##irkan
bir
prak
dimulai
februari
##abaya
silam
bebas
##evisi
##ust
##etapkan
##tion
sulit
wis
asp
tewas
##ast
##amu
tersangka
cinta
##unggu
##encan
##ilangan
##entingan
gam
mendukung
et
##inggi
kari
mendatang
gelar
ikan
##mal
terbesar
##ayan
menyer
bukti
disel
tentara
sebagaimana
29
##amin
go
##orong
##tic
surabaya
bes
yog
kamis
pergi
##utuskan
menghasilkan
##estasi
hid
##uma
##uter
den
##uf
tumbuhan
tamb
kil
antaranya
leg
jo
##ogra
00
##ork
##ty
fisi
##egang
##ganti
pertanian
diberi
pantai
##aitan
##inkan
inilah
##atnya
siswa
menjelaskan
ni
hot
banjir
##elang
sim
mor
##ustru
justru
miliar
satunya
rus
italia
##okan
ex
##asaan
rasul
usia
permuk
mesin
menghadapi
ditulis
daftar
lewat
proy
##icara
sekaligus
##tup
saudara
##agang
pengadilan
##etisi
ratusan
##agangan
ep
putra
anti
jabatan
tab
##anjian
bertemu
selasa
kepentingan
memperoleh
pah
##ebang
huj
##esaikan
##umpang
pelatih
masjid
kasih
jumat
pasangan
##fikasi
perjanjian
asing
##kar
##titusi
grup
##alisasi
istri
sifat
korup
mempr
pejabat
kampung
sebelah
lat
##angat
##ingkatan
laporan
##ron
televisi
##uang
yg
##intah
##mat
fi
##art
##yo
ujar
bergabung
##uangan
##entar
sud
saling
##ergi
by
##idik
vid
sini
buat
pengharga
cl
az
kew
pasi
korea
##erasi
##ukkan
##urun
pria
yes
tanduk
40
##aruh
periode
diduga
kemenangan
penghargaan
##aksud
kendaraan
fungsi
bet
##engkap
31
pec
##ie
keuangan
2002
##ipta
petugas
proyek
teori
##av
bas
departemen
kadang
##ite
babak
strat
##ham
he
##kirakan
##atasan
pernyataan
keduanya
##edakan
2000
australia
lel
##ace
gad
##ba
panas
versi
##atikan
##anjutkan
##ayar
##ahanan
mengak
##itis
tulisan
kos
berlaku
non
modern
##awesi
percaya
sulawesi
pengembangan
##atuan
##etik
demi
pesan
warna
unsur
pemil
##rik
meraih
gambar
con
##ret
##alisme
##enti
##ebor
radi
materi
sch
dikatakan
##utup
##wi
tadi
situs
kebanyakan
siang
aktif
##yakarta
##juangan
apal
dirilis
lapangan
faktor
post
tampil
##akter
##ex
tercatat
medan
dibangun
sabtu
rem
##oph
apalagi
div
##iring
193
jaya
bunga
ditu
##bulkan
ditebang
2003
dokter
bap
##akaan
##istrik
benda
dom
was
rusia
tujuh
##adikan
##ampak
yogyakarta
berusia
gi
burung
pengel
abu
peserta
saham
model
##arapkan
##erak
mut
pribadi
perjuangan
perdagangan
##acara
##empat
listrik
mengebor
membuka
##ock
sambil
##amaan
##ganya
##gantikan
ceramb
cerambyc
terh
rapat
cerambycidae
du
##uku
##iksa
terlibat
dikel
lihat
2001
hujan
##ht
##indah
##ajukan
peraturan
##arto
terbentuk
##ahaya
petani
gagal
pertanya
##amkan
##andung
##utr
temb
mempert
berakhir
pemilu
##uruhan
total
lahan
pandangan
hind
glob
melayu
##emi
##alahkan
stand
memutuskan
##edia
kemar
##aksanaan
##aporkan
karakter
rup
##ema
titik
aman
##alikan
kim
##ampung
##ahami
korupsi
##kin
teknik
terbuka
video
top
angka
##olongan
##dayaan
kisah
pohon
menya
imam
khususnya
##bah
cina
awalnya
sektor
##tt
gas
##adah
mic
##urahan
berc
memenuhi
ulang
meneg
##atasi
olah
jatuh
mengur
lokal
pendapat
ta
menikah
pu
##olik
bom
##ektr
##unjung
obat
meningkat
kesul
diambil
putri
tampak
ari
##hl
##by
##ne
##uddin
keg
##pp
pk
mencoba
perhatian
yud
##anji
berf
pil
yesus
buruk
##ulus
permainan
bant
kalimantan
didirikan
ajaran
polri
bersifat
##zi
##ten
dipr
##entang
##oduksi
pintu
dijadikan
bog
##yi
##ungkapkan
seles
sidang
##antas
dahulu
##ase
hadir
dur
192
##ver
##omo
batas
##ordin
pelangg
bakal
berisi
membaca
##ilkan
penumpang
##awang
##zah
pur
##umkan
energi
yahudi
berdiri
##insip
##jek
berharap
pd
artinya
##her
##bula
taman
piala
pelay
##uat
internet
##edaan
menger
pertanyaan
##onis
##tern
##za
##ayakan
##oritas
##uali
pilihan
##iksaan
hitam
keker
keseluruhan
demokrasi
kira
##antara
konflik
antar
komputer
permukaan
nebula
##anyi
pengalaman
dukungan
##har
kelurahan
##onton
syar
perso
prinsip
##ampilan
kong
cab
##amai
diterima
##aim
##uruan
##agam
pemuda
mengapa
turut
sip
persoalan
sultan
catatan
##ji
pekerja
gaya
saw
##hana
nus
mengeluarkan
suci
hakim
pemilik
pid
nanti
status
gemp
balik
##ran
asi
##bi
aktivitas
hat
john
##ora
melip
##intas
500
kepad
##ihan
menim
##anyol
cor
gus
kerana
alk
ha
memulai
teror
perbedaan
##ongkok
situasi
##ambat
puluhan
buruh
##enaran
murid
dat
##resi
istana
##udukan
##oli
##ational
komunikasi
##anjung
2011
##ith
sehari
kese
tanaman
nur
berper
tri
bup
##istik
tangga
dial
##jen
sd
profesi
menurun
selesai
##apura
direktur
cr
menciptakan
tradisional
malah
##ambahkan
pembel
##jah
##tah
##nam
bertahan
##ei
##ales
struktur
menjaga
pelaku
bambang
##elis
##faatkan
meman
##kup
diperkirakan
prim
diptera
macam
##asakan
saksi
2012
sri
stadi
sukses
##ahankan
1999
sir
##nas
##adinya
amat
kehilangan
##pan
motor
red
pam
planet
dipakai
norm
kau
##amping
hotel
##turan
##ester
garis
menjabat
tari
comment
penju
supaya
##tis
dimaksud
sesungg
lanjut
suh
##uasai
##co
fasil
tiongkok
sebalik
##tawan
bakar
pulang
##operasi
mun
pab
asli
menentukan
isu
##aid
sta
hilang
bandar
syari
##sh
##airan
yus
kot
##isis
elektr
suka
sesungguhnya
##ungguh
sya
afr
##butan
##ambarkan
punc
##buat
cap
kenaikan
##rid
##itakan
bergerak
mendengar
tegas
web
meliputi
fir
##ein
##ikel
hew
##pun
perdana
uni
namanya
##engaruhi
dipimpin
admin
luka
kulit
kontrak
orbit
anaknya
pelaksanaan
roh
mengembangkan
mesi
spanyol
berikutnya
dilihat
##busi
sebaliknya
##egori
dprd
pemeriksaan
emas
sl
anc
duduk
##ee
menimbulkan
semuanya
komunitas
##urat
##dak
disk
diam
seng
##akaran
##umumkan
##empuran
##ivid
disebabkan
afrika
##gin
##turunan
##ahu
##ebasan
nasi
##inginan
##ekaan
##eral
yo
35
pertempuran
##ulasi
##raf
##isk
suami
##port
tambahan
memasuki
menjadikan
kepem
##uluh
kompl
dibandingkan
leb
padang
##ino
kecuali
seder
tuan
peningkatan
reg
##rasi
membeli
pm
menyerang
##umsi
gempa
bb
individ
qur
aliran
##ayat
terpaksa
kemarin
yakin
menunggu
##asinya
sehar
poin
komand
keterangan
##uji
halaman
papua
##ish
191
##itasi
##les
keturunan
my
##uhkan
##ampilkan
kais
dibawa
tang
pedagang
##antik
pela
sungguh
##asia
jasa
kebenaran
##arikan
jarak
##entikan
yunan
tahap
camp
##pasi
kebudayaan
diharapkan
ataupun
kualitas
seharusnya
dilaksanakan
harapan
##ice
##istan
revolusi
45
fasilitas
##intaan
hewan
tom
##akuan
diperlukan
dewasa
##hanc
##angkut
##amah
##awanan
##anye
2014
makin
ulama
mengakui
##if
mengirim
seks
delapan
menyebutkan
##ement
tenggara
vir
mit
jur
menang
fisik
wartawan
dol
2013
##uth
berjudul
##ps
yunani
##amakan
##tribusi
kand
##ografi
kerj
##anggil
adat
berkaitan
##ahas
mendirikan
pengaruh
##ick
mengubah
metode
menyelesaikan
rad
##amatkan
##sud
administr
bangk
##bo
pelayanan
##onstr
##iling
lin
keempat
melaksanakan
bayi
mpr
##uksi
semarang
diadakan
##jau
menganggap
wajah
kabar
##mati
##epatan
golongan
##de
akad
menjawab
lu
iii
lang
menuntut
bekas
##cana
pertahanan
##andi
##trik
ditemui
pemikiran
kekerasan
positif
##alang
kaisar
sid
pengan
artikel
##esan
##egah
##tujuan
penerbangan
sejauh
kenyataan
pikiran
##ancam
##aju
tv
isi
##get
ton
pb
##sik
abdul
##ue
menengah
kelah
final
layanan
peluang
ayahnya
##sepak
mesir
##cayaan
kemerd
tumbuh
##ane
##una
##enggarakan
oper
dj
mari
60
indah
isti
kelahiran
radio
##untungan
nat
kemerdekaan
mengandung
##ajari
digelar
##indak
do
manajemen
pajak
##rip
diny
##arn
mengan
katolik
semangat
juara
pasien
fakul
fer
##tumbuhan
ts
ho
potensi
##ahun
tiap
tekan
dek
ukuran
singapura
uc
anggaran
tik
##tisipasi
kop
##ital
pangeran
##ombang
cen
##iner
menyus
luk
taw
##rig
standar
disampaikan
gal
##ler
lengkap
global
prop
bencana
has
krisis
##ley
pertumbuhan
megaw
upacara
mengadakan
pelajaran
pokok
menjalankan
wal
pendukung
##ferensi
pengguna
menilai
tep
##oko
perkara
bupati
##anggu
fakultas
maju
##urg
prod
##ll
membutuhkan
##apatan
khas
mahk
tidur
rob
##epon
kesi
memahami
memimpin
##jak
aspek
foto
pari
dita
karier
pelabuhan
terpilih
##entuan
##caya
vol
##urangan
takut
tertinggi
##adang
puncak
melainkan
##onia
tol
ahmad
##ner
##ium
menjalani
##tek
misi
def
keinginan
32
##umpulan
liv
merek
majalah
van
fo
kepercayaan
pabrik
##sel
##awatan
aturan
super
peg
teks
dokumen
engk
2015
##tin
fat
dihad
lakukan
##rat
##ediakan
##ukur
megawati
karyawan
sipil
wh
ditangkap
serupa
sederhana
##ajian
memakai
menyediakan
sekret
tun
uu
##mar
##ida
##fik
city
mutl
melanjutkan
aparat
##wah
kris
hendak
sec
hel
##lar
generasi
miskin
tata
komentar
##bert
htt
hukuman
##yu
membunuh
lump
##ii
sig
pola
guna
ribuan
sma
permintaan
ba
##ding
gab
##asilan
memenangkan
dimiliki
##tasi
penger
##uler
iz
##tia
menambahkan
ketingg
modal
##ck
peman
##ulauan
##ometer
##emat
##kap
ps
mempertahankan
bagus
##untutan
huru
##emahan
##alian
menjelang
##awal
1998
peter
roma
kiri
##angani
mik
majelis
kuno
individu
kepulauan
cuma
##irip
distrik
penyebab
mengenal
tekanan
terbatas
selamat
sak
peringkat
##tinya
##age
##ence
menutup
berbicara
pembentukan
ciri
angin
##patkan
perintah
dag
samping
##aiki
arg
##ungkinkan
##fah
##eum
perbuatan
pengusaha
ditetapkan
akibatnya
sahabat
##utar
kuasa
merd
penguasa
memperl
##ayang
rasulullah
diser
penyanyi
era
melibatkan
ww
pernik
mengurangi
ris
ros
hamb
menyampaikan
apapun
bend
dibentuk
ketidak
##edar
novel
##ambut
berhenti
dewa
##nu
bahawa
kampanye
ip
mencer
http
his
efek
kalah
##gen
lawan
##sen
keberadaan
konser
##adw
##indungi
blog
kud
pegaw
##warna
semacam
lelaki
menggantikan
penjualan
##ebat
##likasi
##juk
kesalahan
cabang
gadis
engkau
nik
penjara
##itung
##purna
urusan
pindah
daun
dav
berpend
##ater
huruf
##asana
koordin
##wakilan
hadi
##elasan
adik
arus
soeh
ungg
##ologis
perasaan
##etan
##akup
bapak
mac
##ral
pelajar
yudh
##ovi
##ld
rupiah
malang
drama
kanan
penderita
##faat
berpikir
##engahan
tuntutan
gug
rut
tanjung
##landia
semen
mengakibatkan
##impi
##osok
keuntungan
berwarna
##undang
iden
kategori
penampilan
##osisi
perwakilan
##anggar
##asta
york
setengah
epis
tungg
diikuti
long
##umb
2016
##onel
fakta
pegawai
##sinya
##aru
##ras
##pon
net
dise
menegaskan
klas
##ekar
mengingat
##ven
mendorong
kesulitan
##ts
memperb
bon
ancaman
eksek
diperoleh
sepen
perangkat
pertengahan
darat
sastra
##own
##asama
usai
terbang
pernikahan
soeharto
##ean
##zim
##oyono
##itab
tuk
latih
rekan
os
iv
##alin
wor
##hatikan
##pir
anj
##juang
##yan
staf
land
menggelar
hol
maksud
##unjungi
##ilaku
budd
##raga
telepon
bertanggung
menand
##entasi
sembilan
haji
simb
33
maluku
menyimp
##my
pp
bib
chris
musuh
united
lev
dinilai
minim
bogor
##tal
ujung
muk
kamar
kalian
sarana
##mo
##tifikasi
wisata
val
##aksaan
##elih
##ktikan
##lemen
han
judul
palest
yudhoyono
reformasi
banten
##iku
##isahkan
##ahasa
pendapatan
cur
berani
##illa
##osis
syarat
serial
terlebih
lam
##ataan
tanggung
##gak
merdeka
##ato
golkar
dipas
jangka
##omba
all
fraksi
suasana
1945
lintas
nah
pakaian
##endam
##elajari
markas
bos
bukit
##inet
##titas
##iksi
kre
##tuju
##ondon
profesional
80
lo
bh
##ancang
peral
lampung
britan
membayar
mirip
mengin
elektron
lant
kampus
mi
gor
stadion
strategi
kilometer
kaya
nyata
terbuk
london
##mb
##angkaian
bersih
##orn
sepuluh
dinyatakan
300
kub
menguasai
##iskan
kompetisi
##anja
www
##ewati
eur
agak
tas
daging
kartu
##emuk
70
pembuatan
dingin
##umur
pertamanya
toko
mengungkapkan
remaja
alkitab
terbukti
memungkinkan
pembun
metro
ver
##ria
senang
populer
wir
cir
sisa
latihan
##edit
menambah
naskah
##oman
bertambah
terima
konstitusi
##oviet
##ayani
perguruan
comments
dev
soviet
satuan
ren
semula
bicara
##assar
##amaian
mencegah
cender
alias
bandara
rusak
dipilih
das
dampak
diangkat
comp
sut
terjadinya
kimia
world
serius
mengal
astr
menghind
pri
utamanya
fes
##ohan
efektif
harta
dak
dif
##kand
##alisis
olahraga
##pe
berhubungan
sebag
##ph
kebebasan
##anjutan
hong
mengej
##indungan
adi
yay
award
wajib
britania
##fe
ans
pembunuhan
pemberont
##unjukan
##jual
##umpulkan
makassar
pering
##ahaman
posted
dikembangkan
cita
divisi
menjual
kerap
kompleks
mengatur
susi
dos
190
##irian
izin
mekan
##nah
lumpur
ibunya
kejah
kok
kawan
36
##line
taj
##utip
menderita
memakan
ga
kebakaran
dian
ketentuan
penyer
lemah
oksi
menangkap
wali
##der
swasta
1997
##sist
kedatangan
##enteng
tor
##ijaya
pecahan
makna
bung
moh
ramai
peringatan
tern
premi
objek
pemas
##tir
##ambi
normal
disebutkan
bertanya
##etul
##ektar
##hancurkan
menampilkan
##okasi
penyelengg
##engkapi
memperk
##lat
kpu
arsi
yayasan
##osiasi
##atik
char
sby
arti
lah
##inj
filip
ratu
##ros
gej
diant
##isa
berbentuk
##sea
perlindungan
cahaya
mendes
bbm
##ajuan
##lin
pani
simp
dinasti
kecel
pon
spons
mol
##ampi
kursi
museum
betul
psik
lib
cenderung
kejahatan
naf
##iss
maksi
jemb
jarang
kenapa
##ago
gelombang
sekretaris
segi
cel
akbar
jantung
1990
episode
tersedia
##lima
mencakup
perek
manajer
##sepakatan
end
kedudukan
tai
pendekatan
##omosi
belas
##agia
memerlukan
##inisi
solo
nu
menekan
parlemen
milan
langit
sehat
##go
##ebihan
dikirim
sebaik
kuli
##via
##enalkan
pelanggaran
##tudo
kecelakaan
rs
menyerahkan
alex
hany
target
mengalahkan
palestina
pac
2017
##intai
##isitas
romawi
##ost
fen
geor
menyad
menetapkan
ayam
magni
##ary
sayang
kesepakatan
##ujuk
memanfaatkan
dijual
konv
ban
##win
##ingkan
##akwa
mendek
sebagainya
##so
##unci
smp
##epaskan
menggambarkan
##ger
jaksa
jul
don
simbol
hy
perilaku
##yakinan
iman
##inda
nasib
hijau
##tival
sain
kritik
kode
teb
otak
mc
##ania
puluh
jah
kekais
pengungsi
protes
chel
hen
timbul
kekaisaran
kabinet
makhl
memastikan
tergantung
##adu
festival
##madi
gangg
bertindak
intel
ketinggian
##bon
artis
kesen
david
##50
berperan
ced
makhluk
##esu
panglima
pangk
##he
china
sepenuhnya
tunggal
singkat
pengurus
##io
##sus
kpk
##uel
dibuka
34
keluarganya
main
altern
##sih
##ewa
tud
desain
panc
berbasis
##andia
dki
##let
##pen
mengajukan
edisi
##indahkan
pingg
##usak
fin
mund
dusun
permas
##angsaan
keadilan
##umpul
dimas
##enakan
sengaja
reaksi
magnitudo
##ica
##odi
sepeda
resi
jus
comm
##ene
sadar
nel
populasi
##intahkan
##okus
lepas
mengangkat
international
institu
##jana
saluran
paus
##sor
##fir
wat
##antinya
madrid
asam
rangka
habis
panitia
##iarkan
gangguan
sukar
perw
##put
penjelasan
hib
luc
damai
duga
ahad
##hadiran
##bankan
kejaksaan
riau
budi
wid
##elan
direk
hidupnya
##lis
kepemimpinan
##ukai
##ft
sop
dilaporkan
menyelamatkan
mengumumkan
##urit
##osp
pemberian
gagasan
##ogen
kalinya
##ling
walau
sudut
##aksana
chelsea
kir
transport
dikeluarkan
##embalikan
tersi
tema
menaw
tulang
inves
##otong
##aksikan
relatif
ruangan
##teraan
jena
##olaan
det
qu
##wo
eksentr
pemak
##ihkan
##onen
forum
istr
wahid
tau
susilo
pbb
##ker
marah
##egara
real
aktor
sekel
##atangani
berfungsi
fit
didapat
##engaruh
##ahirkan
off
pidana
##embun
mengajar
melewati
not
jembatan
##ke
##ery
jenazah
ibadah
virus
##pu
dalamnya
dibutuhkan
perum
setuju
fed
alami
parah
##isl
inj
##aminya
ujian
tiong
akses
doa
memegang
mang
kapol
menahan
##ght
tertu
manch
tam
harian
mayoritas
##unjungan
jurn
cit
len
##adan
mewak
bp
eksentrisitas
peralatan
melahirkan
##angkit
##kuat
roy
menu
mulut
kertas
minta
mengatasi
pihaknya
kewajib
jawaban
dosa
##emar
mutlaknya
investasi
kuliah
day
terang
produs
far
tamu
##ental
berangkat
bertugas
persatuan
diantaranya
menyusul
kecepatan
keyakinan
vari
turki
90
alternatif
##iam
berkel
arm
terkena
ditand
mencetak
##entangan
memandang
##yakini
##unda
rahasia
seringk
polda
kekayaan
lantaran
diaku
ass
##tansi
maha
bol
terasa
##unkan
##indahan
##ordi
##ows
melaporkan
praktik
fa
istrinya
seringkali
##ome
iran
banjar
portug
ujarnya
pesi
bengk
kristus
tes
##nes
bum
##tabil
mula
##ero
kehadiran
##esis
muka
na
menangg
##jakan
pras
##cel
##aceae
diselenggarakan
##antah
can
lun
gro
filipina
kup
ringan
jurusan
binatang
37
##egal
layak
##ajarkan
koloni
menurunkan
mundur
##oso
melindungi
##pi
pond
##iliun
lub
##ilia
gawang
maria
pag
sempurna
##ustakaan
perbatasan
tempo
belakangan
insi
praj
##gn
lantai
penonton
##uncurkan
menikmati
mewakili
menemb
primordi
setahun
let
merasakan
raj
terpisah
membahas
##lom
instr
kalimat
##ukuran
cedera
permasalahan
mahkamah
hasilnya
bil
##eman
menghub
alih
puisi
kunjungan
##itor
kepadanya
timor
bor
tentunya
##hoa
##ance
pembelajaran
sant
##onomian
champi
berpendapat
kesejah
buddha
38
beg
university
##asitas
demonstr
kendati
tampaknya
##uduki
mud
primordial
dugaan
##sk
mempelajari
tindak
##icu
menyadari
##alib
kekurangan
ledakan
bersa
##emukakan
melayani
##olos
regi
dirawat
##ial
cm
quran
adapun
##amina
##oth
hanyalah
##ancar
##ugian
bersamaan
minum
##tren
ditentukan
tionghoa
##mig
seper
brasil
sejen
kredit
kesejahteraan
memainkan
##uw
perekonomian
##intangi
kiner
pelatihan
pengelolaan
tambah
kerugian
##ujudkan
nggak
menghindari
kemajuan
189
tag
negatif
liter
suhu
menangani
pred
##egr
sebut
aplikasi
ars
mempengaruhi
penerbit
##ric
murah
transportasi
##ancangan
##ebaskan
you
ditutup
ajang
diproduksi
diminta
lum
##are
1980
pengikut
berbuat
##laim
##aktif
tir
tant
##terian
moral
##esta
pasalnya
sasaran
pres
##madiyah
1996
dal
perpustakaan
##jawab
kod
rec
betapa
##arg
triliun
aneh
planetisi
planetisimal
##ihatan
rekaman
bendera
##urang
membuktikan
kerjasama
strateg
we
##sb
##omun
gejala
beroperasi
##eku
##ikal
coba
cuc
tangerang
av
arane
umur
menawarkan
kk
tipe
##utkan
pengunjung
institusi
pemahaman
keus
##ff
dihasilkan
cipta
iklan
suaminya
flu
##ubl
##daknya
latar
rumahnya
lulus
hindu
optim
##ado
memad
senior
champions
minuman
danau
sih
##uss
perse
##iker
kesatuan
kementerian
identitas
##adarai
##eld
akadem
komponen
keuskup
kunci
diperk
zat
besi
##utradarai
hasan
lebar
syah
##jur
2018
##abah
diakui
nen
##adaran
sosok
abdullah
##ams
tahanan
##chi
##ailand
##iki
##aring
prajurit
keuskupan
##ambung
gula
pasir
diperiksa
transfer
nuk
##its
berjumlah
kewajiban
skor
thailand
aset
gre
##lu
##afsir
tiada
##zal
menentang
berumur
manchester
sore
fenom
didukung
##agaan
perbaikan
##orasi
##resif
mengus
dewi
latin
plat
rencan
fac
keselamatan
out
nark
42
##ormati
dipen
debut
kajian
##enangkan
##ect
diw
banyaknya
##omunikasi
imp
menemui
setidaknya
gaji
##ory
##tujui
##oga
##tau
buatan
karang
##inar
konsumen
##awas
makam
ditahan
##safat
kuning
dini
kus
perairan
kinerja
hadiah
star
pesantren
##ungkap
##epend
##ormatan
tal
kebi
##ito
asy
##yang
ditambah
##agung
1995
188
unik
semata
##way
kesadaran
jas
komis
seiring
kelima
pertamina
termin
dosen
las
mengunjungi
diatas
gemb
pangg
dialog
wa
beragam
ra
##erakan
kering
ambon
pikir
##dy
menghentikan
##ney
diskusi
adil
menghancurkan
paris
tat
##car
##ocok
##pol
##iden
##hu
berbahasa
filsafat
seolah
berapa
label
##itungan
perdamaian
konteks
tend
analisis
##yanya
perawatan
berhak
liber
independ
gelap
##yal
peneliti
pembicara
##ebaran
##use
##hael
willi
uskup
##ensif
400
komunis
##utif
dp
##rahim
prestasi
fe
laga
area
legisl
##oner
pencipta
los
are
rencananya
melanggar
pn
##etakkan
berbahaya
pembu
keman
keberh
##orium
bursa
cok
##ebon
##agama
halnya
dibagi
mengend
merujuk
##wis
nar
##otan
##jem
soci
##obatan
##edak
dk
##akh
sesudah
darurat
##awatir
abdur
dll
nap
oksigen
##ersial
rock
##ash
39
administrasi
agen
gabungan
juru
##abiskan
##mewa
pemenang
memperbaiki
mendesak
konferensi
##hawat
detik
beserta
cil
sapi
##nan
##yum
tarif
nelayan
karen
##indo
sampah
hus
kuda
##tauan
##alanya
kumpulan
wang
emosi
kopi
menak
##ford
berkat
maaf
mengumpulkan
##rib
jema
pondok
cy
##tusan
pengertian
##iti
##yangkan
##unungan
komisaris
##oma
liver
##lakukan
demokrat
phil
##udin
putaran
hebat
utang
##pirasi
nusantara
##truktur
##ajat
wind
mengarah
keag
75
beral
dec
akal
pengend
dibawah
selepas
kapit
##elit
beban
insiden
bertujuan
##rahman
##uad
soekar
khawatir
eksekutif
truk
diperb
41
penemuan
hadapan
##osk
beli
pemberontakan
##rak
##ser
dikar
gil
1994
cirebon
timnas
##urunan
pegunungan
kebiasaan
kapasitas
##opsi
##arjo
##waktu
##lum
mengab
injil
inti
##ower
risi
cip
##lawan
aja
stabil
istimewa
bed
1992
purw
perkeb
##icarakan
menyi
##sin
pengakuan
semoga
##bal
bersedia
putr
penurunan
keju
##ihatkan
patung
jambi
kian
visi
rich
##amar
kapan
##itmen
blok
##ume
##upiter
##ear
perkebunan
level
pangan
##mer
55
hektar
diman
43
ca
##acu
berkuasa
##encanakan
tertarik
##ien
##oo
##ontr
##ankan
mengajak
##inaan
online
boc
pembuk
km²
##utrad
striker
pahlawan
1970
membuatnya
tanya
sap
##timbangan
##kes
krim
komandan
##ubung
48
merusak
##idah
penyeles
hand
cak
iklim
wujud
janji
##ikul
pengawasan
dinding
##obi
##net
##ayangkan
angkutan
vok
##egan
benteng
##ander
##entina
##iskinan
komando
gigi
asasi
lapisan
44
##awali
##agalan
##str
##owo
tepatnya
##pool
news
##rani
kekalahan
bagaiman
sinar
disutradarai
##tain
kelapa
##ugh
ibrahim
panggung
sayap
mask
penilai
berw
##araf
memeriksa
menyaksikan
dolar
pay
mesti
belah
brig
##pres
kamb
fre
irak
tiket
elemen
james
tertutup
gat
##ucapkan
temp
bangs
paul
##adaban
##ombongan
sekitarnya
kudus
moham
tajam
##angkutan
##ove
lan
kanada
kongres
persa
memperhatikan
##enangan
personel
##ony
menyeb
seksual
om
from
mig
##krip
dipert
anjing
mengancam
menceritakan
telur
perayaan
##elihara
##erat
##usiaan
pis
mm
##presi
menerus
kotak
fenomena
nenek
cac
susu
park
##indung
umar
dijalan
##stem
digital
kemiskinan
diing
mengingatkan
sekadar
membantah
terdakwa
diatur
nor
perwira
menduduki
##ool
diplom
mengerti
jun
melepaskan
sewaktu
penyelidikan
kn
group
tuduhan
michael
peneg
otor
##jang
mencatat
teluk
kegagalan
stat
##siapkan
aktivis
sesama
##ansi
ub
ikatan
pesisir
singel
persiapan
swt
contohnya
urutan
liverpool
sebaiknya
elektronik
kapten
##sch
##ampau
dipercaya
keberhasilan
##engarkan
tantangan
187
berjanji
mahal
ingat
##ulusan
firman
##olehkan
cad
pesta
hil
##adwal
47
bec
sor
kebangk
##uta
ec
sebutan
memerintahkan
mekanisme
##awar
46
lolos
sand
reli
usah
beragama
center
ketat
beda
est
rangkaian
hindia
##luan
dialami
viet
biru
merebut
kanak
teknis
adam
rancangan
menempati
soekarno
keperluan
plas
perbankan
mengganggu
sad
##dangan
nag
skala
manfaat
black
51
komite
##aikkan
bersen
dilengkapi
##uy
##buhkan
ilmuwan
layar
tersend
##mah
##ensis
mir
1993
yusuf
memperkuat
##enarkan
profes
kalla
jari
melarikan
rambut
pendiri
ekor
##atorium
bac
pembah
penya
penutup
##sal
aut
pound
risiko
berdarah
##rol
sarjana
konsul
pertimbangan
tersebar
robert
##que
##gantian
logam
##ikirkan
##emas
##etakan
pengganti
##mpulan
impor
##antikan
berpengaruh
##upaya
pertunjukan
diungkapkan
kritis
##gia
##omi
tki
menempatkan
menanggapi
tahunan
mengant
persidangan
##jaman
letak
menerapkan
menghabiskan
##angkapan
##we
##aft
waf
kebun
penyelesaian
##ominasi
peta
tenang
kala
lupa
karenanya
berjuang
jaminan
##oks
ucapan
##20
poli
tetangga
ganti
##irinya
play
##reg
tubuhnya
dikutip
##eth
berupaya
##ohonan
##nif
##upuk
sayangnya
kac
##rus
hanc
##masi
histor
diserahkan
150
evolusi
##arak
##los
##igh
dong
peradaban
dakwah
atom
system
studio
tendangan
jati
##ings
mengalir
strategis
##onya
kank
kart
diciptakan
pandang
kemanusiaan
gelandang
hiburan
penilaian
##yanto
##ath
perlawanan
terminal
memanggil
induk
mengisi
##etron
berken
angel
ic
##ebo
##ular
etnis
diterapkan
rap
lukisan
mengam
memaksa
samud
tertulis
setia
ven
##etapan
prob
klasik
menyambut
rh
##namen
peduli
cantik
tsun
mulia
mengec
naz
padi
mandiri
sahaja
bany
cek
##ampingi
kesuk
##aram
##lir
tutur
##uruk
keagamaan
##alisi
unt
##inci
##ahi
semasa
##jol
kandungan
kond
intelek
lantas
pemand
nyar
pencarian
pembagian
besarnya
rupa
hip
##las
unggul
vis
1960
##utradara
dilanjutkan
sumatera
perumahan
polandia
term
##yn
##ancarkan
disertai
dilarang
kanker
##enger
##argai
signif
menyangkut
lomba
##eliti
mr
ian
kaca
sinetron
salam
##guna
lubang
ditur
##mpan
vietnam
##mark
george
##fr
##ington
antr
kandang
jend
##ins
##osh
bekasi
bod
medis
penduduknya
sejenis
pakar
digantikan
##ambangan
##ayangan
undangan
kain
unjuk
surya
legislatif
pelanggan
pkb
liar
kosong
menemp
konvensi
labor
dilah
dipanggil
solusi
kompas
ekspor
perut
##rom
merilis
pergerakan
##ilangkan
formula
west
senilai
##upan
tali
jak
pembay
##udara
dor
##tanan
gratis
teh
kilogram
memec
menyerap
familia
seluas
terbakar
ibnu
kreatif
bersikap
##entrasi
##eni
melarang
##vi
petunjuk
jej
keterl
yupiter
mengenakan
##gasi
1991
gamp
##dam
kakak
kesenian
##apres
membela
pengobatan
kesimpulan
##ejo
peranan
karyanya
paket
kebangkitan
ekstr
56
kubu
syariah
##ekuensi
##cing
##ical
pakistan
sari
sutradara
pembayaran
persetujuan
purn
menjamin
nantinya
jadwal
maksimal
temannya
koran
##zh
mengirimkan
##ese
iaitu
memproduksi
diubah
mom
hum
##rut
semp
with
sawah
mendekati
##uhur
52
diajukan
rid
rombongan
signifikan
nuklir
berencana
sr
##awinan
abdurrahman
##aluasi
kebaikan
matemat
##odo
wajar
terdengar
bot
menginginkan
arsenal
manis
raks
##tida
##yon
senya
penyimp
cocok
##ugikan
tawaran
perahu
kag
terbuat
54
perkawinan
but
disini
gem
186
##ogo
transaksi
hatta
araneae
agenda
baku
palsu
putusan
hancur
katakan
diad
komitmen
kesan
##tivitas
##aib
##wisata
mam
##usir
53
##ille
2019
terbagi
ditayangkan
##ise
##abil
49
ditingg
kedok
pembaca
bentr
##berg
murni
bersenjata
dilahirkan
##bagai
##asihat
##iyah
##omend
menyiapkan
tepi
sia
wawan
natal
fc
boy
jajaran
win
##rama
teroris
##imbang
##erus
serangga
dimasukkan
panggilan
prosed
mengembalikan
vs
kesultanan
tsunami
##olakan
balai
pengk
##fan
pensi
prosedur
eksp
##eti
kaw
sunda
kli
##sidi
mendatangi
didasarkan
##encanaan
menara
zh
uji
ais
zona
##ikh
##enam
##waan
hut
mewujudkan
##alas
lampu
diturunkan
resor
ran
fab
##esm
nusa
diantara
menet
##lok
##ks
##tad
orde
bilang
##hip
ruu
##izinkan
read
menyimpan
berlanjut
kelak
##ovasi
pasca
perencanaan
58
dibintangi
##iel
##etulan
gambaran
##toran
maklum
##tivasi
1950
65
57
internal
bob
kg
##imu
##fl
##10
muhammadiyah
fokus
##uaran
##omas
##oksi
##tris
penyelenggaraan
hik
tersendiri
entah
otom
fitur
mengklaim
dibunuh
tukang
lim
this
kadar
memasukkan
saudi
pip
lunak
rud
didalam
mb
ner
##teran
##sihkan
pek
raksasa
independen
nan
palembang
mey
aud
puas
bapa
sangg
isteri
##vasi
austria
peper
cop
candi
##rav
pdip
dasarnya
ori
riset
jin
hai
surga
##ekor
citra
seminggu
yan
diyakini
law
kebetulan
##ahul
##bn
##angkatan
bertentangan
##egaraan
##alif
berkumpul
respon
##vin
kelihatan
gerak
##ambu
ruk
dituj
heran
##identifikasi
akr
pemul
berbatasan
##irik
##ere
##sm
nyaris
##sy
dipenuhi
##utri
manag
fal
62
baju
##arankan
satelit
dimaksudkan
600
enter
national
akar
cua
##ster
arif
##atalkan
##jemahkan
nep
pinjaman
fri
diumumkan
publ
besok
ja
##plin
raf
##tektur
dipastikan
##enting
##ulah
vic
ditujukan
##ture
padat
frank
kalo
inc
bunuh
menye
mengejar
kai
##inah
william
##erik
efisi
amp
##orit
terbaru
seniman
##lang
kontrov
##bud
kuala
kontes
oc
##mbangkan
meg
ash
tap
##onsumsi
##astian
bergantung
perancis
##pertimbangkan
##rim
senyawa
horm
ditempatkan
swedia
demam
port
depok
1989
samb
##ario
cadangan
##entuh
petang
kakek
sesi
##iru
rektor
dicapai
puasa
##alem
##bola
henry
bahaya
##illah
amal
menandatangani
bagaimanapun
menghadiri
maskapai
sepakat
##otr
terbit
tommy
semesta
##tury
dinamakan
menerbitkan
petern
hon
##ujian
jl
terkadang
jack
paru
##aza
ism
bersalah
##idat
##ontal
mek
semi
kecewa
armada
wi
##ugerah
century
##kom
tempur
memerintah
dirancang
grand
usul
mayat
kerusuhan
untung
alum
##iraan
bermula
menimp
dimanfaatkan
gir
dimak
ritual
##ebak
kuil
##abut
cuaca
pariwisata
##lasi
mental
##ella
##ward
kuali
teater
arsitektur
rasi
mengundang
investor
volume
koalisi
akun
koleksi
mendengarkan
##etika
dam
kehend
ala
kw
kara
lak
susunan
campuran
##alon
aq
ganda
flor
memperlihatkan
asosiasi
atm
jahat
##48
dijelaskan
memberit
##esa
##oyo
##aph
##ikin
menyusun
##ongia
##ott
gul
cas
muslimin
single
##ys
berkurang
##yp
sekutu
lulusan
sibuk
ilegal
##lian
menyerah
gram
meja
pembukaan
agresif
##etus
pemuk
##atangkan
pameran
otomatis
rasanya
protein
penangkapan
dipandang
mengad
dinam
hor
patri
##dian
turnamen
longsor
##ajahan
##rain
##yono
digambarkan
formal
klien
banda
rutin
yohan
beriman
menunjuk
harinya
kedokteran
terancam
that
paham
##aptasi
swiss
koordinator
jel
##ajikan
sekedar
warisan
59
pendirian
##aton
ue
pentingnya
laboratorium
gud
perak
adipati
dataran
aktris
##untungkan
pangkalan
mengu
mont
putus
##antum
susah
##itr
halus
permohonan
sedikitnya
rm
harry
habib
mab
sund
laks
##30
kabur
martin
seekor
barisan
hamba
##eluk
ketak
roda
memuat
cari
##ile
##unggulan
raden
nak
pant
terorisme
pemegang
meneruskan
bersangkutan
berukuran
##imbangan
diganti
isa
menghubungkan
tersisa
persia
##adak
menyebar
game
gak
penjaga
tump
nig
##elop
##usai
bersatu
papan
rekor
##idiki
pew
pakai
terlepas
serv
keunggulan
selengkap
indeks
angkasa
lee
babi
school
intelektual
pram
gajah
berharga
##sten
##oi
berguna
malaik
windows
gh
berkeb
pir
##gr
##ale
##irman
penangan
ronal
jon
##awakan
penerim
bangun
pasc
wawancara
64
sind
gur
sains
##ude
##over
spiri
argentina
##apus
email
peroleh
fah
musa
##onc
pembicaraan
##rian
kader
lambat
skuad
##burg
otonomi
##aba
koordinasi
pdi
amien
##hiri
praktek
##tidae
dibantu
minimal
sank
pembantu
uud
##kl
melebih
##arnop
##atar
pengacara
seminar
ret
berhad
##hum
pura
hom
##ambar
cerd
##atuhkan
##antasan
trag
##esuaikan
kandidat
ditunjuk
terjemahan
pemilih
belanja
pans
kontrol
basis
persek
##nik
pantas
promosi
##yek
selengkapnya
institut
pilih
khali
berlebihan
diselesaikan
##oker
jatim
sekelompok
multi
##isar
malaikat
##otaan
mimpi
siti
hidayat
gerbang
konstr
duta
pembinaan
menekankan
mempersiapkan
mataram
operasional
hay
anwar
time
besaran
perund
##uary
##ole
##lus
leh
rute
bulu
subs
inform
barcel
##anyikan
peperangan
##eder
ideologi
daratan
jumlahnya
resolusi
denp
terjun
kiper
##asti
dihadiri
##ze
molek
##operasikan
hatinya
penerimaan
berdoa
tarik
berpr
yohanes
##anjangan
mengor
ci
lambang
##amana
rub
dkk
##jan
##urs
barcelona
ray
##alus
mengund
komersial
tahan
ditemp
##iaman
##anam
poso
##umpai
melakukannya
one
berunt
ado
centr
andi
##asnya
fot
hamzah
mengacu
munculnya
##oki
##ware
kenal
ditanya
##abar
persaingan
##ussalam
kamera
dirasakan
akademi
disiplin
les
vit
1986
##aritas
##angkal
regional
material
##ansir
lest
1988
seusai
kehormatan
##abarkan
hir
kelemahan
music
ketim
ditolak
sopir
mengajarkan
kenc
##eki
##usif
gua
##aitkan
##diakan
lanjutan
memperkenalkan
pengelola
ungkap
pendeta
denpasar
bund
##uaskan
pembal
kediaman
menurutnya
wafat
narkoba
##abatan
menangis
pengamanan
konon
pemberantasan
##elapan
salib
said
landasan
disediakan
rac
terluka
larangan
wash
dijalankan
##emy
##ahnya
penal
menghormati
ich
##ospongia
##esh
##ambahan
siaran
##migrasi
penyerang
tanggapan
menyes
##ongkar
misteri
berulang
##obaan
pelbagai
awards
##oyang
under
umno
bata
komune
sug
kut
##emuka
dipengaruhi
##sediaan
##tawa
euro
penghasilan
##lem
##ico
rokok
##ebatan
mendalam
mengakhiri
topik
##che
riw
##anjikan
##arawan
rumput
berhadapan
diab
##inga
lari
dada
##akses
khal
menolong
otoritas
berman
dap
asap
tembakan
taiwan
##elam
wahyu
mini
zain
jusuf
##ritik
bangkit
dimainkan
jual
cend
##ograf
melebihi
##chen
##ure
##arnoputri
##day
thomas
penanganan
dikarenakan
ال
penerapan
berni
mail
##lahan
hart
##ull
ath
kucing
malu
##amankan
tergabung
atap
setan
mega
##ibatan
##rit
berkas
mutu
dikemukakan
alasannya
chan
peluru
##baru
##ilikan
bocah
##iayaan
mens
##ism
jac
##olan
disusun
parti
minat
##ikulum
##linya
##ahit
terti
disamping
mengelola
koperasi
gitar
##ingin
cons
down
baw
hadits
patut
66
1985
##ophy
pengunjuk
konsumsi
pasokan
dipindahkan
jil
diker
pengamat
lag
kontak
tegal
bangsawan
##otik
##eber
menaikkan
##asari
kb
##sara
kurangnya
seter
god
##atukan
bing
hulu
cd
hamil
berak
sanggup
distribusi
jaman
1965
praktis
utusan
ms
penolakan
bersaing
kebangsaan
mandi
kompet
charles
menud
##mur
diluncurkan
matematika
dikuasai
persyar
ular
adv
penyebaran
serang
cik
shah
##ations
membakar
##inho
rt
##torat
tiang
##ution
konsist
infras
perkataan
kepemilikan
tangannya
pupuk
lou
bengkulu
##ahagia
ambil
##bel
kurikulum
tangk
##ilingi
##num
nyaman
aid
melanda
penulisan
niat
jujur
motif
##aul
##impiade
religi
menimpa
dengannya
raz
##jar
##akinkan
##isinya
##sial
menyelenggarakan
derajat
bid
##luk
ketimbang
darussalam
maya
##oya
800
##akuasi
##agn
ditandai
##ihad
usulan
lembah
membiarkan
bahagia
menghilangkan
1984
dihadapi
alamat
merugikan
jose
##kripsi
stev
ungk
garam
demospongia
menguntungkan
##inggalan
demospongiae
johan
premier
meksi
dpp
sejati
aug
perhitungan
sepertinya
human
dhar
every
washington
goog
##ampur
##egoro
pengamb
wasit
perlahan
persyaratan
bpp
sela
lebaran
##zz
##app
musibah
mid
karbon
##rahat
format
butuh
pembuat
##sek
soft
sanksi
##impunan
pungg
sai
kualifikasi
##ukis
ketakutan
tokyo
##ardi
bilangan
memikirkan
profesor
richard
meksiko
##til
##yikan
##raw
batam
bomb
##yim
kepr
dicer
gand
##asila
chi
paulus
hij
tenggelam
kejuaraan
##embak
lp
menyukai
kesukses
hadis
pidato
bill
diken
tertua
1987
sido
pengambilan
mengand
cam
sabar
pembelian
##ornia
batal
adegan
##tribut
berawal
##awai
##ogr
##abel
berganti
berunjuk
coll
sepakbola
kelebihan
pemakaman
sebulan
##nai
##iji
##bia
rupanya
mempering
tembak
1982
bakteri
south
andr
dilansir
memul
sinyal
villa
infeksi
tb
olimpiade
##ide
membedakan
bij
bukannya
dihub
riwayat
pejuang
##old
##be
buti
01
dul
menghargai
ky
ucap
khalifah
keteg
berbagi
##val
ach
##wood
mengganti
##saat
rugi
otot
kewenangan
produsen
berdua
transi
batik
##ekatan
bukunya
##adat
##empurn
05
##sepsi
penangg
panen
plus
erat
calif
berkunjung
wo
milyar
graf
dimensi
##emikian
paman
kerangka
pep
shalat
domest
pancasila
ug
##orsi
08
peramp
benua
pembahasan
show
pedang
google
asas
hidr
membebaskan
more
wapres
portugal
pemad
predator
ibn
##turkan
kolonial
marx
kri
##andra
demonstrasi
administratif
06
sumbangan
ekonom
##gunaan
gay
##urusan
deb
dibaca
fisika
rok
selaku
bara
zi
tomb
parpol
lil
segar
max
##ych
bermanfaat
mendadak
##angkau
back
nad
drs
tk
##ativ
persis
menon
##itz
73
ded
##olo
##hari
disimpan
##isihan
63
tersen
won
mengeks
ditaw
dub
##rilus
jaz
##uransi
abb
lis
agrilus
##otanya
88
berniat
##orter
california
##ogan
##site
72
amin
mengundurkan
subsidi
gunakan
seakan
mengikut
haram
cairan
gembira
ragu
85
aslinya
penderitaan
##lor
rahmat
##arki
univers
ij
kay
beredar
##igur
diperkenalkan
##ulangan
kerabat
61
madura
yu
##ampungan
gudang
09
penyi
02
ditampilkan
seputar
birokr
dagang
menel
##orth
##oke
xi
##ech
infrastruktur
mineral
kang
##trans
bro
berpar
mabes
sebabnya
org
irlandia
##barkan
bunyi
##awasi
##ening
imper
tembok
daniel
acad
ibrani
doktor
vokal
kehendak
##embunyi
##uba
bulog
keterlibatan
seterusnya
700
samar
fad
mencintai
sedemikian
keindahan
wac
rezim
##edah
master
##ye
senanti
cup
##iteria
warung
saleh
##inter
##for
amir
definisi
##ux
##umber
##andu
komb
##gian
pengawas
pilk
keenam
senantiasa
##gar
domestik
jurnalis
##sean
app
pengajaran
polres
185
limb
aspir
makanannya
mengendalikan
##usn
lemp
##yid
saran
pasifik
kaitan
##erai
tambang
##rie
##nel
mengucapkan
mengungsi
tersenyum
tarian
##ican
obama
beta
##ashi
pemeran
##sion
berkebangsaan
cetak
love
berpindah
sidoarjo
realitas
kasar
obatan
250
##ariat
##enderungan
teguh
beri
santo
kemas
disingkat
99
menghadap
##unus
memelihara
berta
philip
##oci
##erse
pembebasan
mengantisipasi
##ology
1978
song
kutu
komik
memadai
kesuksesan
##ety
kariernya
merayakan
##olahan
180
##esaan
##eph
##ahap
only
kah
website
trop
lamanya
membersihkan
##eno
mong
psikologi
nob
##tunya
muara
##isip
produser
budak
menduga
komposisi
ditempuh
##ky
##otes
##teng
##ianto
fifa
##kus
hektare
##eet
klaim
uefa
etika
1983
##oss
mentah
##usat
menggel
##omosikan
kriteria
pengamatan
pensiun
asisten
68
dius
##pura
##ujung
pra
kolam
##olf
bukanlah
meyakinkan
semenjak
##asang
##inang
##awijaya
kecenderungan
meluas
##hawatirkan
dwi
pust
biji
##egrasi
menyenangkan
##ajang
##ungutan
perikan
almar
umpan
##utnya
sentr
pilkada
direncanakan
tabung
molekul
##rich
market
muj
ungkapan
##ualitas
##ehi
##inat
saudaranya
memicu
ternak
##ontrol
##akala
press
temuan
myc
kuan
mengger
seleksi
bermaksud
gara
manado
waktunya
almarhum
menetap
##opter
membicarakan
pelaksana
work
##inggal
hasyim
perikanan
##enia
dias
pansus
mengharapkan
lancar
##yaw
pks
##ano
pasang
dikenakan
pecah
eli
akademik
##tag
berkisar
penerima
bambu
##dr
stadium
##allah
bumn
##aker
pemasaran
ih
hu
##onegoro
wew
menyetujui
mengurus
difusi
kambing
sci
pemda
dh
sit
jama
dollar
kafir
enggan
wayang
berkenaan
bertu
bakat
asean
##itanya
peninggalan
ppp
restoran
terganggu
1979
asuransi
penetapan
##alurkan
diisi
best
hangat
##wang
##ulir
bibit
terbanyak
mengerjakan
rohani
kekasih
pic
nyawa
##urt
##engkapan
lomb
sedih
lemak
cucu
nada
persegi
marga
punggung
##acakan
beruntung
##oll
67
##ibur
tujuannya
terkemuka
membenarkan
miss
terkej
tw
karangan
tebal
##ehan
##unjang
spiritual
##turut
putranya
##vari
bach
##ning
penggemar
74
##intar
life
fran
kid
##agukan
berse
pengec
##ewaskan
##lm
disiarkan
portugis
07
micros
##agaman
##intasi
##roe
menyita
anggotanya
denmark
mengusulkan
setara
##akna
dimakamkan
berpartisipasi
##lad
spek
tin
wisat
fu
insting
sejah
priv
pilot
how
disana
##juangkan
pemandangan
solid
##apaian
##iro
green
kiai
mahkota
tuanya
jihad
sof
puc
##ote
tech
##sili
81
dibahas
##vei
power
mangk
pasaran
tingginya
pki
baja
berangg
mahu
##sman
kedalam
insp
pengem
menyelidiki
1981
##ebook
penalti
kedaul
konsentrasi
ditinggalkan
direktorat
##out
##utanan
76
brun
ditud
kedaulatan
##eu
franc
sumur
kenyataannya
##embahan
seribu
##erikatan
##matan
##top
sunan
za
pengir
akrab
perserikatan
kontribusi
##ewaan
menembus
##san
penyelenggara
penyedia
##imen
kebahagia
salat
jalanan
##tant
dikelola
kompetensi
mog
##alisasikan
prasasti
legenda
pembeli
way
##aduan
menonjol
##agan
fiksi
plastik
rekannya
pemukiman
##trin
persah
penyidik
tipis
dihentikan
akh
##gabungkan
wisatawan
good
serangkaian
giz
wacana
dialek
##unyi
anal
terpenting
kendali
##inggung
hongaria
konsisten
120
sken
persamaan
cha
didik
organik
liberal
##yani
mewah
##oka
eff
bentrokan
referensi
riv
menyebarkan
##awati
menyentuh
universal
cerdas
meres
permukiman
bermas
ramad
##oe
##bd
pengiriman
persahabatan
##cc
##als
awak
komedi
sejahtera
dipahami
##ofi
##omotif
##oft
berturut
buta
##upi
rela
pinggir
bermakna
78
get
telek
kabel
victor
high
oh
pembakaran
mempertimbangkan
menewaskan
##pn
membah
rasional
karakteristik
##entik
77
yerus
upah
menempuh
##hou
awam
beng
sawit
pengeb
##yt
terungkap
vii
sensus
munisip
terapi
sisanya
sosialis
##itt
orangtua
ismail
indra
nafsu
berpori
ong
kapolri
pengarang
leher
hiv
mencuri
##dan
jateng
bau
berikan
##hid
meledak
khan
##tainment
brawijaya
padanya
##ury
##ink
asil
file
kebahagiaan
yerusalem
mayor
gig
##iana
terkesan
roti
jejak
melamb
american
sempit
##ahlian
link
##ampaknya
dibeli
pertar
konstruksi
lini
dekade
##ceae
##injau
04
bpk
##untuh
memperkirakan
tafsir
didampingi
##akti
evaluasi
audi
jag
menampung
ruas
fase
##faatan
ditawarkan
##ative
sms
mitra
enak
matanya
fund
setinggi
##aruan
184
perhubungan
##anjurkan
tex
motivasi
keahlian
tahta
harm
gugatan
##off
##obat
##panjang
selat
##tanya
hakikat
ladang
tutup
sejarawan
garuda
##elai
1975
bush
julukan
impl
disambut
##isih
nav
##akannya
iskand
pln
1967
astrag
interaksi
christ
eric
71
##enya
record
klasemen
terkejut
line
##yam
karno
laku
gan
count
juven
##lukkan
##work
pendaft
tags
dieks
buka
##angkitkan
bingung
diterjemahkan
##gh
##urah
##tip
hard
##ohkan
kehutanan
academy
ix
sepatu
pesat
mengamankan
##iano
datuk
##eam
##angkali
##idana
deras
##ering
manc
inteli
neraka
pendaftaran
entertainment
amanat
1974
potongan
astragalus
meletakkan
caranya
emp
instansi
dikabarkan
rahman
##esmikan
bacaan
toh
rekomend
syariat
masehi
lurus
arena
berkom
##ecahan
aksara
dpd
##umpa
samudra
##kala
##ulia
menyarankan
ramadhan
##daftar
map
analis
##sihan
##efinisi
bea
##ele
isinya
ditunjukkan
95
rw
##ier
sunnah
keberatan
##ily
tugasnya
##unculan
memf
kediri
selang
massal
jemaat
rach
tank
sn
survei
prioritas
federal
ty
##ianya
peternakan
dipec
club
kompr
sekian
demonstran
march
asilidae
kriminal
##uke
##syah
jabatannya
##ulat
##tujuh
paksa
##onan
##zo
boedi
pembawa
##cang
bertanding
penas
perdebatan
ort
juventus
##epan
##ls
##wanya
##ilasi
##ekh
pontian
menun
drum
tertawa
tabel
perundingan
##pektif
##umuskan
diar
##unduk
develop
##cepat
##tiga
tongk
tengk
mendarat
munisipalitas
86
##jaan
ditarik
##ghan
mant
##ribadian
##intis
menanyakan
politisi
mohon
musisi
##oklam
pengas
##ganegaraan
perlakuan
melem
1966
surakarta
penghuni
harganya
##tigasi
percobaan
pengum
pengaturan
partik
param
berjaya
doktrin
##board
palu
##eria
butir
som
intensif
##yyah
pemantauan
gugur
##ulit
transp
##astis
dipergunakan
jim
baj
##ografis
##bs
bub
biara
perolehan
##ius
pengeluaran
fav
##araja
penerangan
taufik
cem
siapapun
dendam
##ehat
menikahi
##weg
##eser
blu
seluruhnya
asuhan
hang
##ahulu
sentim
menonton
##orial
mutlak
penyerangan
pemulihan
ditangani
propinsi
zul
mendatangkan
##okol
diperhatikan
##uto
operator
wik
ketujuh
##nia
bersek
bppn
##iny
bulat
bercerita
pontianak
pengendalian
psych
berdampak
kis
software
##tive
##erankan
69
sengk
aspirasi
##isit
##seph
telinga
baginya
revolusioner
dibebaskan
kultur
pengadaan
rekomendasi
##adwalkan
apol
dihukum
silat
bimb
melintasi
pertarungan
##okerto
gizi
prog
frekuensi
ear
##alangi
##fo
wr
##idasi
1976
dilantik
##pons
penyus
##inum
dikalahkan
##agus
jabar
anton
beralih
##bun
skenario
takh
##isahan
meluncurkan
terdekat
sump
menjauh
kesed
big
##onik
putera
lirik
filos
nampak
sebetul
##jat
##embah
##tp
kue
##wijaya
belgia
junior
habit
telekomunikasi
telkom
##uriga
zakat
##jung
##stein
03
belasan
##daya
##oses
semenanjung
serba
ks
matang
over
##ecil
hubungannya
sebetulnya
dominan
perman
pertambangan
membalas
nangg
##utuan
penjual
tong
##anggungjawab
penambahan
jurnal
ketah
rawan
1973
##akatan
logika
nominasi
ideal
kandung
##esarkan
persepsi
dengar
##yawarah
bertahun
skot
pemanfaatan
patah
gila
##inus
##entak
nil
##ru
bervari
menjalin
pengolahan
lazim
ciptaan
cs
melemp
berperang
pengumuman
pencapaian
teri
kepalanya
lor
##organ
membuang
opini
98
tragedi
eksekusi
public
part
penahanan
kecerd
dipaksa
memohon
kesem
##ult
everyone
##itaan
##ugat
resep
afghan
edward
dibayar
mohammad
tahapan
pandai
##wal
badai
dipasang
penganut
laksamana
1969
mengemukakan
utsman
masuknya
bertel
atl
dicatat
goreng
##ng
##erg
kepribadian
kesaksi
animasi
##emia
##endaki
klin
penerbitan
memisahkan
campur
menjatuhkan
syarikat
ow
ditambahkan
berdirinya
facebook
batin
run
biar
terlambat
berjarak
##pad
##istribusi
terdaftar
berlatih
##field
persekutuan
iskandar
berkep
##efinisikan
pendatang
dikaitkan
madras
keseimbangan
pergantian
berpeng
lingkaran
baiknya
1971
##arahan
helik
mempers
1948
son
tenda
##egahan
##edul
memindahkan
pangkat
mulanya
areal
##buan
diberlakukan
bervariasi
97
##11
##apahit
##ege
##arung
skotlandia
keterampilan
ukrain
dend
membagi
##osfer
spec
diserang
daud
diinginkan
naga
##ektor
berlokasi
##tm
##antang
boediono
diak
##agikan
##uci
##itish
majapahit
##yl
183
##utut
sint
cacat
sakti
82
memat
wadah
malik
angeles
ox
kemac
kuk
##kota
sha
membatasi
bayern
antena
lembut
toz
british
kematiannya
alian
1977
lautan
kapitalisme
##angkab
berlin
relev
sifatnya
wilayahnya
##ous
helikopter
masakan
dituduh
institute
associ
biologi
giliran
##emaran
##antar
produktif
front
abadi
terper
sport
majikan
kuningan
berkualitas
##yana
##osil
terendam
##ike
##ophyll
menutupi
bawang
peradilan
##oskop
impian
##oper
kemacetan
kepastian
bangga
1949
minangkab
protestan
pengen
##atinya
##zuki
96
bug
toy
sufi
##ujukan
subur
menyuruh
##udahkan
##ym
awan
##lav
ditandatangani
##ensasi
who
terw
diwar
##agen
teratur
instrumen
##endi
pekanbaru
meriam
##hancuran
##ontalo
sepekan
wewenang
##ake
sara
royal
biro
penyair
perkiraan
##tro
nis
##usul
karir
pons
norma
lal
84
jutaan
berga
pelunc
intelijen
demokratis
minangkabau
penciptaan
gorontalo
rais
inovasi
dayak
##akapan
parkir
##embunyikan
madi
persel
ditim
rab
##ject
nanggroe
##ayasa
lengan
will
sentral
bani
##osan
##tiar
rumit
corpor
vitamin
tour
##ership
ui
troya
bersaudara
inisi
gampong
##hian
spesifik
kacang
nug
imf
leluhur
##erahan
pustaka
tul
##imbing
dicetak
##load
puk
dituntut
masukan
ketegangan
mot
dang
karet
##ajibkan
microsoft
buru
nic
mour
edi
##ova
kontroversi
dijadwalkan
mengejutkan
##ernand
##rin
visual
##hat
limbah
santa
tj
##zab
partikel
barangkali
##adaannya
1930
desi
laju
smk
ortod
##letic
##hasil
diawali
##akunya
kurun
##angkaan
ditug
kejayaan
nazi
##ovic
she
##ophyllum
ukraina
statistik
dibakar
##sky
tertinggal
perspektif
##cus
87
apollo
permanen
##rob
memeluk
tub
sesaat
##cher
pemakaian
utuh
mengawasi
adiknya
##vensi
##aa
langka
##umbang
mengag
##urig
melancarkan
##zhab
perform
bernilai
tingkatan
menko
##ikasikan
disetujui
jemaah
adakah
gran
imbang
your
pengajar
kena
maksudnya
kupang
##onfir
balapan
diperl
##akm
79
louis
chang
##unduran
##imah
ponsel
miliki
perbandingan
variasi
1972
batak
teologi
suti
lombok
mourinho
diperbolehkan
keduta
bulb
##iranya
##ego
jendela
##iko
menab
pagar
pisang
slam
disajikan
1968
produc
membatalkan
fergus
##syat
merawat
##mann
fatwa
ikh
basah
##edisi
memasang
bm
nab
commun
banding
kolonel
##xi
##upai
##arai
##ugu
hamid
##ulangi
penasihat
alun
hall
##umas
1963
##eteksi
menghar
ramah
globalisasi
kecerdasan
memukul
##ungkus
##otensi
kombinasi
development
ilah
seratus
1942
kemah
kepadatan
network
pns
memecahkan
182
membel
##oshi
##yarakatan
iwan
eksist
berkomunikasi
kedutaan
##oul
##iringi
sejalan
aliansi
terwujud
##try
tunggu
##yli
tahunnya
coklat
kapitalis
##gma
rama
##iew
ric
paripurna
curah
fosil
##dul
##ague
meningkatnya
##kandung
tani
kerjanya
ferguson
timnya
##atap
dipegang
musyawarah
fan
dinamai
roman
##uz
indonesi
absen
book
pembac
dikembalikan
rot
detail
mengut
##nografi
letnan
dv
haz
##ancing
##teriak
arke
negosiasi
##ulik
##etes
##egor
times
##ated
madinah
1962
##tuanya
kosm
##raz
joseph
dijumpai
gue
bekerj
##impun
##endra
##ohol
transparan
rent
dharma
berteriak
memberitahu
jog
rong
kedalaman
jalannya
lsm
madrasah
berter
aids
##aidah
afghanistan
lamp
penjajahan
##orban
##ever
##ohong
cukai
serie
right
memudahkan
##pus
mengandalkan
menghadirkan
finan
##olat
pedesaan
voc
muz
company
1940
bulbophyllum
kendala
rukun
tolong
##ekali
pasukannya
##utasi
ibukota
mongol
diraih
##jarah
radikal
83
mengangkut
sambutan
bikin
##abumi
rod
memuaskan
##able
##yadi
##egasi
personal
carex
##uit
pengangg
92
##dik
terikat
dikenali
ekspresi
1946
##amer
##awanya
##ublikasikan
tingk
##itah
soalnya
cinc
##masin
##pek
kesaksian
politikus
melaju
##minkan
pantauan
##ontarkan
menyem
##lude
logistik
muatan
ekspedisi
##esik
cerpen
lipat
deh
sukarnoputri
1964
takhta
indo
##edy
menegakkan
melatih
federasi
##esidenan
syukur
psi
ling
##umah
##eck
begini
bimbingan
balas
##hawatiran
udah
lad
posisinya
##kop
##eling
au
gm
obyek
wahai
haf
lembar
alumni
birokrasi
yam
##12
##ampaui
lamb
##olet
keterb
seragam
kekhawatiran
geografis
hidung
##ropol
elite
siklus
##orak
nir
jean
menyed
pelayan
fans
hass
coun
mitos
dahsyat
dri
dz
keram
natur
kotor
sev
nasionalisme
tertangkap
him
pembalap
santri
##entian
kencang
menghilang
test
batavia
##agar
dides
eko
##led
bn
##jauan
social
wad
##kh
pemerintahannya
surut
diteg
ronaldo
##umentasi
##tiban
mengusir
pemberontak
##wu
deklar
##onstruksi
darwin
89
diajarkan
banjarmasin
oposisi
pendudukan
pencegahan
900
sosialisasi
##med
hawa
hill
pintar
tra
rawa
key
mengikat
bombyli
##okong
tandjung
puteri
disepak
ever
society
##ive
meyakini
plur
letaknya
je
christian
bersy
syekh
kaget
historis
efisien
##rt
penu
senapan
##injam
baginda
che
mengabaikan
bibir
lut
memperjuangkan
bentuknya
serbia
##ror
mart
person
teor
nasabah
penutupan
diletakkan
##egas
prab
melepas
techn
##sp
##atuhan
norweg
libur
finansial
dinik
elec
##aparan
favorit
bahagian
dibiarkan
menembak
mempertanyakan
manakala
hambatan
runtuh
qs
usi
##inasikan
memotong
direksi
penyerahan
##ves
menamp
##ativitas
saf
wiranto
##amad
mengizinkan
1000
mempromosikan
disepakati
angkat
berlalu
menyimpulkan
gon
##akitan
cc
gaza
kalender
ortodoks
melupakan
mematikan
gov
##ister
##idin
manapun
penegakan
dapur
##ulaan
memperluas
##olasi
##our
##adasi
menjadikannya
pembangkit
medali
perih
##iasi
kompensasi
denda
jagung
##idaya
##ekuk
surah
dna
bersejarah
xii
##iayai
melambangkan
##kos
inflasi
rujukan
idul
keterbatasan
baris
imb
kursus
sengketa
berbu
obli
##yad
##edo
bersyukur
benih
mengas
mikro
diwarnai
mengob
membangkitkan
dikerjakan
keraton
mars
alf
hendaknya
bertelur
berhati
bawa
hun
##imanya
banget
##uro
mustah
##elajah
##agon
robot
madiun
kelamin
saraf
disek
mekah
rantai
contr
kip
implement
merokok
dipisahkan
fair
##aro
boj
##arag
server
bint
##wono
saint
pelindung
##adir
perhatikan
alm
##ijing
bertahap
mencerminkan
dijaga
mycet
##imbau
kemarahan
##akmuran
1961
live
leon
solar
mk
##adari
sukabumi
##under
1959
##aborasi
gw
joko
general
mengidentifikasi
domba
##arya
jamaah
berpotensi
invasi
kembar
mycetoph
infan
wall
##ose
##ediksi
apbn
monumen
skand
sebentar
aziz
##imi
pembant
nota
ditugaskan
komod
jk
smith
halal
membahayakan
bermasalah
sound
##ahat
berst
capres
dun
permulaan
botol
##uasan
##vel
pemungutan
menghidup
toleran
mengutip
##etis
bukankah
perpanjangan
kapolda
bond
bekerjasama
mai
melengkapi
##ardjo
##wati
##omet
dsb
lea
perannya
kob
##aksin
pedoman
saatnya
tempatnya
penguasaan
prasar
##hri
usahanya
menghitung
afgan
##ency
delegasi
marin
##unculkan
norwegia
##ensinya
andre
##untuhan
peluncuran
munt
batalyon
##esuaian
pinggiran
refl
##lywood
mengungkap
##arm
tayangan
##usa
deputi
kakinya
tukar
syams
penari
rasio
nun
year
##ingkirkan
panduan
##anon
dibatasi
tercapai
jayapura
liat
mete
cu
sepi
melangkah
francis
##iskusi
mp
surv
##cast
kemudahan
mudik
sekiranya
menyerupai
##umbangkan
##els
##tifikat
hukumnya
potensial
##press
anth
spe
ekspl
jazz
ketiganya
nektar
menump
##uansa
kantong
mendasar
dimakan
tasik
menjanjikan
terjual
rai
jember
diberitakan
hilir
conc
prasarana
kontra
ragam
##sil
seberapa
berkew
iblis
berke
dipers
politis
dilakukannya
dibuktikan
ramadan
pemberdayaan
home
##ultur
cre
##ball
seand
intr
syam
bari
yas
160
mendidik
jaga
peledakan
train
pribumi
ion
young
mempercepat
valenc
pemadam
serat
service
open
hantu
melintas
moj
##include
protokol
arch
##ajakan
jasad
menuduh
##antam
merencanakan
lembap
vill
rekening
maklumat
membina
region
##ope
##otria
berkelanjutan
asumsi
##yarat
penghitungan
md
##elin
anugerah
seandainya
partisipasi
##yoso
kelemb
perkotaan
psychotria
busana
diselamatkan
if
pertuk
batasan
house
pref
dikend
membaik
dimuat
beijing
sumpah
##ert
disahkan
duka
lapindo
ann
##tre
merc
juri
##tempor
##idi
simon
mogok
93
deklarasi
bodoh
andalan
##ilm
reh
disesuaikan
kin
penan
melampaui
fik
mengarahkan
##yai
##lie
##andingkan
diakses
tropis
pukulan
fau
mengantarkan
##xx
##arch
north
1958
sesat
remp
dikur
nasution
mich
diizinkan
##amuk
penyimpanan
##ikator
##ello
##onaris
terpadu
pc
##alangan
negaranya
##zan
balasan
##oja
sepasang
##aannya
antoni
ball
dn
meneliti
fitri
##impah
league
pujian
rib
onlyinclude
##mm
amor
1947
keluhan
sian
razia
pertolongan
alq
dilalui
##iness
menyanyikan
kritikus
##egradasi
cib
berkali
college
akhirat
pipa
##kam
pulih
rer
pati
elit
dicari
##ontak
resiko
fernand
perundang
terjebak
hassan
##uap
point
now
suriah
mendapati
diarah
penyiaran
eug
##uch
gading
aneka
petual
sok
terbunuh
traf
sumut
##15
disiapkan
harap
##isir
polen
sampel
pengikutnya
##bae
management
tidaknya
layaknya
alur
##emput
eksper
county
lep
jantan
sayuran
##ahagian
jeb
vo
tikus
diwak
bayangkan
diceritakan
laskar
pered
##ekad
menyeluruh
mendi
memperingati
samarinda
abbas
fari
##irat
indikasi
pendahul
mengkritik
betina
##aparkan
pengl
diresmikan
##entasikan
##emik
masalahnya
samuel
fundam
##ilitas
penyidikan
rizal
gender
##berto
##tions
dihitung
alexander
penemb
##ogi
mera
abs
inisiatif
cengk
kekal
##loitasi
review
tunduk
alham
keberanian
##rot
##hit
##tusi
penyal
dibuang
reporter
semest
hikmah
deng
bangku
##apak
dihuni
##ebutan
mustahil
ditembak
atlet
##enap
pemelih
que
wong
didominasi
mengamati
##sari
diajak
harim
habibie
scara
wajahnya
cincin
##ekaran
eksistensi
paku
##ild
sembuh
##osal
pornografi
kesep
slamet
mazhab
investigasi
ditingkatkan
##embahkan
##migran
diskrim
learn
##elahan
datangnya
figur
nih
##aten
madu
1920
##wana
menuliskan
pengurangan
##bara
tanam
dioperasikan
emb
menelan
racun
##akiman
mengemb
ketinggalan
alhasil
eh
##opa
larut
intervensi
memenangi
##wat
menghubungi
paras
properti
##wara
lh
wei
klik
resear
sensi
bombyliidae
perf
anark
merangk
mencabut
cos
wabah
##antungan
roket
lidah
metropol
redaksi
audit
ringk
##roh
buy
##isnya
formasi
##anjaan
lisan
akurat
tuntas
##mud
semestinya
##abaran
mary
stan
jay
##ebus
eg
##usik
wed
sekalipun
sekeliling
##ector
##bukan
diputuskan
yahoo
mui
aer
wes
valencia
diarahkan
menggabungkan
ler
##awe
tayang
##angku
mandar
##ehkan
alas
##oksida
inspektur
pengangguran
karim
dulunya
##aksakan
1957
##ming
menandai
harimau
mass
##pret
##ebes
hidangan
sdm
maz
##enggam
##ket
##sc
free
inspirasi
problem
ron
##inder
state
##dang
bermacam
secepat
bait
kesal
sayur
##apuskan
komoditas
##hai
keliling
belahan
ment
didi
bensin
maut
hutang
##klusif
dvd
##qi
scarabae
raga
moyang
##enter
sarang
sehubungan
karl
berpusat
tunai
maul
mendominasi
malaka
##angsungkan
nt
unggulan
lumayan
research
ill
argumen
penyimpangan
betawi
##okuskan
berbunyi
##andar
bersab
kabut
kro
##was
##ics
hr
membawakan
majlis
cair
subjek
pemeliharaan
##emo
gresik
simak
konservasi
tersel
##esaran
adrian
179
beasiswa
ors
dilindungi
segenap
caleg
sutiyoso
permais
penak
ry
##edral
insya
penyusunan
rilis
via
##alar
kerajinan
menyebutnya
kelangkaan
##anku
hormat
##onfirmasi
petinggi
viii
pisau
menaklukkan
pengantar
##anggih
konstant
##rakan
keramik
syafi
##endang
mengenali
berlari
maksim
berwenang
wenger
perlengkapan
liu
reserse
##imak
pastor
khila
persero
loc
penghormatan
memuji
von
##antumkan
jet
ulasan
mengira
130
relevan
merancang
berstatus
##indas
meta
pengab
diperd
dida
##ente
menghambat
bijak
bbc
##bau
klan
gp
ratus
tay
masak
##amilan
bioskop
paruh
berlawanan
permus
meramp
mosk
shin
gatot
memerangi
##akaian
##atic
amalan
##ople
gund
##zer
panik
istirahat
##isik
team
##du
penentuan
praja
kecantikan
transisi
street
dipertahankan
yahya
fem
94
terit
sertifikat
##ternal
penjajah
jenjang
ayu
berfikir
kehamilan
rang
##tika
kuti
perihal
menuturkan
low
optimal
bit
keangg
##ison
asalnya
##elat
##oyong
##evakuasi
pencari
penembakan
gede
##ame
domain
yat
miliknya
##rir
##awaran
perselisihan
##agas
old
##urai
dikunjungi
bersem
menghalangi
pertukaran
begitulah
##intasan
tampilan
##eza
ketahui
##jikan
##urian
jepara
lingkup
bersabda
pomp
cic
semalam
garut
##abilitasi
wawasan
mos
tatan
tertib
berkes
instruksi
##ews
##angsang
pencemaran
intinya
menganut
bupres
dipicu
110
box
buprestidae
jef
nasihat
1955
##lines
nias
lelah
asrama
usianya
##ring
arsitek
tebing
barulah
govern
senayan
##intanya
ustad
memprotes
mengep
##ecio
##igami
tongkat
berpakaian
afganistan
##etu
mengukur
merubah
primer
alhamdul
hp
imbuh
pelantikan
batuan
ful
office
brunei
##alinya
sekretariat
penanggulangan
##omor
duit
revisi
yni
prabu
##uluki
##prov
jud
##ars
kembang
pembuangan
wales
bertarung
tercipta
magelang
dibilang
obser
menyajikan
penjuru
mall
##aftar
february
py
pelukis
head
paradi
##ren
diundang
organisme
napas
kuh
walik
kolom
wangsa
pemk
kios
nagari
white
memori
kristi
mempercaya
lup
kontempor
pist
standard
juan
sastr
watak
##itez
bawahan
minoritas
125
gall
ss
gin
sb
##apor
semif
sendirian
##sey
anggapan
muti
##ush
nuran
atmosfer
##alamannya
selandia
lembab
says
lamela
orch
##ingat
bersiap
diti
##his
kepadamu
leste
tingkah
radar
penip
pemekaran
taat
channel
##usnahkan
kaka
sent
berkon
elp
merapi
keliru
konten
teras
marg
psikologis
buj
tentera
emosional
##alonkan
singg
yusril
##ako
##ucian
jaw
##19
indikator
games
pembunuh
peti
pembacaan
benitez
lead
cyper
scarabaeidae
##elak
anime
berdaya
pemanasan
putrinya
ted
##opo
stok
keta
pengemb
acc
##idge
fant
asa
performa
diperbaiki
sex
##orangan
january
anggur
pakan
##malaya
penafsir
lud
ze
##abad
pelan
##entum
menanam
proklam
pengangkatan
carlos
proc
beck
disusul
tris
mach
menunda
engine
premium
arifin
demak
publikasi
hub
mingg
terdahulu
syd
pinang
legi
mama
presi
buktinya
##aily
what
jawatan
kelaparan
##dad
##amal
bertajuk
gang
##ompat
dakwaan
dapatkan
##lop
dorongan
##ardo
penuntut
merak
tercantum
dibenarkan
tasikmalaya
##erb
##opoli
##ies
##elli
##aiman
macet
pekal
##antis
seharga
shar
manga
##18
kenangan
##suf
##omod
##estarian
samudera
metal
kontras
##ajin
##kesmas
dw
cho
1956
##hlas
sihir
dy
jes
berputar
ish
kemampuannya
mode
ajun
singk
perus
efisiensi
##une
interaktif
wikip
##emasan
semester
##osit
diteruskan
bayangan
hilangnya
##usuk
polis
dihubungi
##vatif
jatuhnya
##sburg
percakapan
mcc
gian
##omy
bre
sepat
ilahi
##rad
##utra
gener
##ugerahi
jurus
od
senyum
airlines
gampang
kakaknya
terhitung
##16
editor
##tukar
spir
##tical
kontemporer
##guncang
seketika
menggerakkan
diucapkan
##eport
berkons
minahasa
tp
##resiasi
cian
##misi
##dent
##ree
adaptasi
room
ster
##aharian
##fiah
syaikh
road
##je
unggas
tawar
permaisuri
nahd
pekalongan
##istis
kondisinya
august
mestinya
demikianlah
lapis
econom
##hlak
melekat
menyerbu
bijaksana
add
##40
dendrob
##ody
sriwijaya
bai
kesamaan
##erson
og
##itter
##ebalan
dendrobium
berselang
kekel
hem
mada
melon
silang
peredaran
berbanding
mess
cuba
##emon
menaruh
uap
sulung
bonus
sq
menindak
paroki
senecio
lutut
##eru
ditunda
##airah
menjamu
shang
info
pengantin
##dow
berdekatan
penghasil
insan
konvensional
dikhawatirkan
hitler
wikipedia
seimbang
siapakah
science
elpiji
##uara
dai
boro
berdasar
leave
filsuf
pelayaran
sydney
jago
ingatan
dikumpulkan
alhamdulillah
kutipan
menyatukan
##roli
##hani
penganiayaan
##aling
albert
sdn
tit
selamanya
adu
menyembunyikan
tephri
##isnis
budidaya
##vez
salim
dalil
antusi
canggih
##hol
nasionalis
rekayasa
tephritidae
memasak
mobile
nikmat
##istribusikan
penawaran
berkomentar
menip
nikah
skandal
foot
persediaan
kebijaksanaan
yeh
terkandung
rakyatnya
belaka
spekulasi
diartikan
tatanan
tna
pengajian
inginkan
deli
kuta
pembiayaan
dibedakan
menghapus
first
segalanya
##yap
jelasnya
opsi
##cha
perbel
mengelilingi
business
##ophagus
memantau
penanaman
derm
##adanya
##epak
maf
sj
nept
##13
bk
sman
##bong
marinir
tatkala
buang
kawin
##ombong
menyerukan
eri
klasi
meteor
penampungan
pemisahan
found
cle
sebelas
boneka
##eing
##ilya
berked
rio
reguler
memunculkan
achmad
membayangkan
##estarikan
nin
lembaran
onth
elizab
##arut
dihancurkan
penyalah
hamp
sebahagian
itb
##raft
ai
suaranya
merekam
fos
rez
refer
memajukan
##idaceae
##osari
konsekuensi
ambisi
dipelajari
daw
keim
genre
perib
##anjak
##ters
setiawan
armen
##red
gold
hiper
kru
hijrah
membubarkan
mengkaji
indonesian
walikota
religius
jendral
diadopsi
##anting
antusias
senat
oknum
##aban
lampau
dibicarakan
jatah
dipos
potong
perbelanjaan
herman
rempah
##ire
##terinya
bela
sholat
centre
##tat
ironis
implementasi
##hire
##arau
mengangg
brand
balap
desakan
soek
december
water
grav
platform
mendampingi
hok
perluasan
##dut
##empurnaan
brown
kejagung
paradigma
kepresidenan
kunjung
dilepaskan
##sesi
dukuh
##ruk
peledak
munir
bangka
rudal
##lai
any
pemberitaan
syarif
semifinal
mengoperasikan
dibatalkan
alkohol
kroasia
kans
178
ditekan
omb
##anduk
ganja
sti
spurs
merekrut
beran
shi
##urigai
ganj
disukai
lisensi
##bab
##orejo
melihatnya
waspada
ikhlas
asparag
riz
##ukupi
petrus
fried
penind
arya
bersel
moneter
##hitungkan
dilanda
japan
sepup
##eris
tips
puskesmas
berkec
##auan
cla
##mani
##nanya
##oria
##ider
##lia
tertim
berlayar
association
bima
enc
pengungsian
asparagales
pengawal
disem
##lavia
hero
##tures
substansi
dc
##tel
disney
onthophagus
sib
diseb
gum
imigrasi
##ayanya
people
celah
##oney
jombang
jacob
bri
chic
petualangan
enzim
penglihatan
minimum
bersah
muridnya
porno
##industr
islami
##castle
##ms
separuh
seksi
konsultasi
pengeboman
identik
tanggul
kekec
kutai
##atria
##ecah
menum
syair
hormon
##ukim
datar
sandi
##enangi
kupu
konk
chandra
##umo
meletus
##yaratkan
proposal
maksimum
rahim
menyesuaikan
temper
##aci
dijuluki
ahmadiyah
##uarga
orientasi
makmur
elizabeth
##fera
tugu
##artono
dipad
##incian
imigran
pengukuran
fais
##taw
membongkar
buahnya
banyumas
dikendalikan
##25
##awak
##usuri
kutub
oliv
diponegoro
klasifikasi
liburan
##wil
yuan
cris
tipul
dgn
##set
##adaya
pedalaman
##tenham
memulihkan
diwakili
pori
berkah
repres
asyir
stabilitas
##pkan
##otika
neptunus
mengontrol
nobel
mg
##dn
himpunan
lebanon
zaq
mengawali
newcastle
penyem
khat
140
sevilla
bej
mengerahkan
berujung
dibesarkan
pusaka
veter
sekjen
##rag
##acauan
bayaran
puji
kehancuran
##uck
begonia
konsili
poster
tama
##inf
##ustrasi
borju
##angsa
taktik
berkomp
fung
shabu
kreativitas
##esco
sendirinya
ceramah
pit
integr
journ
lestari
apartemen
seru
universiti
gong
##otbah
senti
perkumpulan
bertanggungjawab
##olas
ditak
ferry
td
suharto
word
menanggung
##enci
letusan
diluar
##ariskan
seumur
menuk
intensi
literatur
##anth
kehidupannya
170
##tributor
ryan
memburu
relawan
marketing
mbah
nampaknya
nafas
imperi
varian
atr
magn
johor
flores
pemud
ukm
finlandia
ginj
kodam
alquran
terbentuknya
alwi
keseti
hana
mind
mengadopsi
tipulidae
dianugerahi
guar
berker
##isisi
infanteri
solidaritas
pembantaian
pembela
pahit
myan
memo
terpengaruh
trauma
fur
east
iso
sky
hengk
##17
aleks
lenyap
##bangkan
tersembunyi
didapatkan
##14
##egory
berminat
htm
##otakan
acuan
rapi
well
corporation
##uburan
dikelilingi
bertekad
logo
##yphi
boeing
seberang
kiamat
suap
menerangkan
##jektif
##oku
menyalurkan
kekh
dihind
1953
##esahan
membawanya
menunjukan
##ebutkan
learning
##yet
dipecat
ulah
ref
biz
1952
cianjur
selam
hipot
penyalahgunaan
##ihara
golden
kuburan
anat
jeruk
metropolitan
bunda
kekuasaannya
myanmar
##rul
##ekusi
lokomotif
nurani
daily
##amen
pengembang
1954
menyumbang
##ilikinya
radiasi
menunjang
##roduksi
arj
terbilang
menges
agr
dipotong
harun
1944
asm
kebenc
kekacauan
bim
masy
fm
dihar
diusulkan
lereng
##hal
seluler
pembatasan
diragukan
buaya
pembuka
kean
lahirnya
mons
makalah
##ection
vokalis
posting
kolektif
1941
tottenham
steve
##angkang
kebersihan
##alth
demo
memberitah
rog
sudirman
sony
pencurian
##upayakan
bahu
diperintahkan
##acap
dirjen
cut
diplomatik
kebencian
khilafah
galaksi
##ilidae
##aguan
##oordin
pran
##och
pesanan
arahan
dominasi
simpang
legal
pilar
electr
urban
kyai
mov
mere
kemarau
##ondong
##arinya
rit
##cl
##uwangi
##jaya
debu
irian
dihadap
sumberdaya
ternate
linyphi
memben
linyphiidae
ceritanya
mengeluh
fox
berad
pentas
silakan
penempatan
depannya
marc
penerus
niaga
kit
menggali
supr
kudeta
lek
kela
sampaikan
perlunya
kejam
mim
penampilannya
brim
mudahan
mycetophilidae
rumania
djoko
kepon
pij
kehakiman
hasrat
depresi
##mouth
lambung
pom
dinamika
mulyani
##buluh
banyuwangi
janda
gib
##integrasi
##ors
fred
debutnya
kees
civ
##ukah
rajin
##odorkan
ther
sulaiman
beat
penyelamatan
pendekar
bersekolah
##ble
atasnya
perhimpunan
prefektur
##tak
##dir
menguji
##anggal
ketu
have
vers
agaknya
propag
menyik
bertolak
##ubur
menged
##tabat
simpat
mempercayai
katedral
humas
hur
wit
##apis
##acak
kirim
##uting
dihormati
perpecahan
terbi
diperkuat
proklamasi
ye
ketid
##aras
sebatas
ummat
##olok
jilid
kemulia
toyota
menuai
reform
cilacap
brigade
##kuit
gim
arist
gerbong
nyeri
armenia
##uyur
##ormat
brah
##ridge
teng
terpenc
santoso
imun
karawang
rol
kontroversial
project
popularitas
tolak
analisa
dog
##edang
##ipto
bachtiar
gusti
tepung
nol
##alakan
momen
stres
jones
pasuruan
konsultan
ginjal
##isika
anggap
ditanam
##dinal
1951
membuahkan
chair
tanggungjawab
##atuh
klinik
brimob
##lon
##onim
atasan
blue
premiership
penafsiran
faisal
lon
gunawan
santi
nd
##akum
##uinya
##angkara
mencukupi
toleransi
menandakan
##rek
panj
berib
its
cim
##lement
##tics
unc
##alai
menyamakan
bedah
obligasi
aji
##len
perempat
pemen
manusi
perkembangannya
mutiara
wel
disc
pangkal
memus
buahan
##ville
perhi
usman
silahkan
pengar
dimintai
proporsi
great
lucu
penjahat
##eme
tegak
eksternal
netral
pengabdian
serp
ditangg
berju
akta
eksklusif
abrah
user
hidrogen
blues
lic
emisi
##br
##aster
##van
sekalian
doc
kadi
kemasan
prolet
disita
##aktur
salinan
kanc
watch
##ayak
full
##tle
syiah
jav
##antau
ibarat
berny
ntt
membintangi
individual
dipul
pewaris
##66
esa
wu
abang
much
perampok
pena
##erifikasi
bertempat
##ede
lord
kelainan
liang
terserang
pemudik
perhiasan
##vo
ayb
pengaw
records
##egel
##zen
beristi
##ication
rint
venez
membiayai
penyediaan
mered
##onso
##yas
jawabannya
sensor
pilpres
dinyanyikan
lia
##asiat
brebes
yyt
event
syi
skema
payung
##unting
##olis
drastis
kemunculan
dipublikasikan
##agri
##orientasi
keberadaannya
##tui
mengind
hollywood
panji
swadaya
##papan
##arna
paskah
jr
ruh
menantang
terhubung
cia
##usahakan
berakhirnya
berkek
##rys
slogan
celana
fk
sentiasa
terendah
orig
kekecewaan
menari
evakuasi
politiknya
ketert
##ingi
pre
berkarya
balikpapan
variabel
mengis
momentum
jamur
know
pg
abi
usus
pengujian
##anjuti
order
##opor
1939
terob
rehabilitasi
pembuluh
##etuai
bumbu
##amerkan
kewar
##inger
keluaran
astronomi
kamboja
perni
mengecam
antrop
menghidupkan
darinya
beranggotakan
ketetapan
kalaupun
ain
##enggara
korps
##undukkan
##uff
berpengalaman
fajar
berinter
menghukum
menghendaki
177
##itraan
##arta
sosialisme
##right
degradasi
ira
diiringi
dimenangkan
panah
##osistem
dikirimkan
sejenak
##jub
legend
keanggotaan
##anamkan
kelautan
bertempur
kiranya
penegak
##ision
##ots
bersembunyi
diukur
cerah
keris
sty
konservatif
##eles
gerilya
##edulian
kaitannya
##kn
misterius
mendaftar
saltic
made
salticidae
kemakmuran
mengutamakan
pok
ste
##ateral
dihubungkan
##ador
harv
ugm
utsmaniyah
rind
##non
terbiasa
##esc
rick
##zed
perawat
sala
lob
##asat
taksi
kasihan
misionaris
amster
dangdut
esensi
pengenalan
##angsungan
dicabut
monitor
##ful
yaman
halim
##ahului
wood
bermotor
bagaikan
sentimeter
##arisi
lukas
friend
kepend
view
tadinya
##con
##ajai
pengorban
diklaim
robin
tob
purba
poligami
amsterdam
##zoa
pacar
chicago
lt
tod
perniagaan
abraham
amun
menanti
kepuasan
linux
football
mengisahkan
sponsor
brigadir
debat
1943
##ambatan
ikhwan
atribut
bent
matius
##heim
caw
dinikmati
terhind
merumuskan
profil
turunan
prabowo
pekerjaannya
berbau
meminjam
johnson
memancing
##riti
ombak
habitat
##amadya
nick
##emari
memerankan
##ungku
segmen
victoria
##uarakan
mitologi
hugh
keji
kanal
everton
manager
##anggang
edit
segan
##utang
kedelapan
##mon
##cd
##usta
pertanggungjawab
genetik
##pansi
fungsional
##edonia
download
##agalkan
##21
diagn
##enan
ana
didorong
##bir
polsek
audio
##getkan
fas
menyembuhkan
nyamuk
klor
##oti
##ilas
akting
kebangga
##taskan
##zio
anna
kartun
kemuliaan
vik
##osat
tembakau
akhlak
##reasi
ika
just
bercak
veteran
iq
##ovich
divonis
beralasan
singkatan
##lex
cokelat
preman
pemr
privat
##asim
korpor
cross
berinteraksi
##tn
pengemudi
##arganegaraan
menyanyi
kamus
widodo
sofyan
diwujudkan
cermin
##imba
mengerikan
##entif
pistol
azhar
##latul
harto
##ramayu
menunaikan
larutan
berfirman
##akia
sans
##mond
rentang
tekad
menyikapi
komnas
##ekerjakan
##eberangan
diidentifikasi
orangtuanya
empir
##zu
##ayana
kokoh
sewa
##orf
gemilang
heb
##obatkan
steph
sebarang
jong
sejatinya
shal
menguat
pusing
lit
terputus
hama
pings
rand
indramayu
hein
october
kesus
ig
##ekanan
##hentikan
luasnya
kotanya
pse
##well
##ontan
##atika
salju
kecilnya
ivan
sulsel
cao
##ski
##enis
kuba
##nie
##arman
berdosa
asian
mub
##opot
spanduk
chen
taliban
santai
##enh
berdiam
kotamadya
350
panti
diwajibkan
eksperimen
pengendara
hemat
trav
keesokan
##ymp
dara
panel
liku
diego
tulisannya
hara
##opi
rooney
biarkan
projek
dikonsumsi
pita
##idor
membesar
fpi
##eaksi
pertik
oscar
dinamis
##uela
memak
memperpanjang
berkewarganegaraan
memutar
fiq
gurun
##zar
karb
kerbau
bersumber
ekosistem
carl
central
persembahan
pertu
track
educ
diare
boh
##oan
##umbu
##jad
feb
##aktor
aur
kemana
##ship
##bulan
diingat
kliennya
eb
##inis
##esel
bernyanyi
##irmasi
##ehensif
ekstra
vonis
pendidik
##letico
amanah
bentrok
##omendasikan
##jok
hiasan
##apasan
basket
geng
##eto
realis
action
mengalihkan
fel
pass
menginap
wijaya
sew
suf
benang
tangguh
ade
mengawal
mahf
integrasi
##industrian
##ason
karna
perkampungan
##empurnakan
penyelund
mengantar
yur
menganjurkan
##pel
meros
##romy
jang
##etti
fort
antik
digel
diskriminasi
##lek
##iliw
dilangsungkan
sumb
bridge
##tainya
simpati
arief
jurang
beristirahat
bertepatan
atletico
layang
yosh
search
code
spesialis
berapi
mengakses
##ujudan
kaku
mainan
keberangkatan
kegelapan
fauzi
paspor
cetakan
ongkos
jung
mahat
##antium
marzuki
posko
##24
penand
##ayoran
waris
dibubarkan
##erinya
perindustrian
interpret
dipenj
ferr
sundulan
bukhari
bulg
puncaknya
##ungut
sens
sertifikasi
ump
seruan
##jk
perpaduan
selisih
semburan
bik
dikej
list
shan
##ianus
produktivitas
##ense
gugus
##lish
##uarai
tuh
kemauan
mex
kristiani
berjaga
##igu
bergelar
mikr
terpen
mengenang
georgia
##ners
barunya
##hy
udang
payah
##apusan
prima
opera
##gantungan
meninjau
kardinal
pembaruan
geografi
fungsinya
ubah
berfokus
tony
##ekiawan
polit
makanya
relasi
##tilah
berakibat
##ingrat
##zon
##untuk
berpisah
aff
cn
antas
anas
memberinya
pod
pertentangan
lebat
mukt
leo
tambahnya
vaksin
pemikir
turis
penindasan
berburu
gend
##jataan
##ipulasi
berlaga
##erre
penghapusan
pengorbanan
dagangan
memberitahukan
pertikaian
fitnah
mengorbankan
dikat
inggeris
mement
punah
cendekiawan
control
##acun
about
##anaan
##alihan
##asm
mangsa
menyalahkan
susulan
bersemangat
##uncak
diin
##onald
curiga
lot
herb
terpencil
terbalik
pingsan
lapar
##burn
diakibatkan
light
konsol
##ografer
nuh
mengimp
disuruh
##asilitasi
tsb
komprehensif
camb
terpidana
penjagaan
rekonstruksi
konstantin
demokratik
merk
##omer
dibawakan
##arkas
##etas
##isia
abstr
seraya
cand
kompeti
##inyur
anarkis
temperatur
ges
dokumenter
keny
mengkonsumsi
##olitik
transformasi
terry
singa
apple
##aaf
gond
berpas
pseud
##usinya
pengunduran
yi
unib
kelanjutan
separat
##inspirasi
tombak
##ehe
kebesaran
sour
##timasi
ternama
##andemen
membolehkan
koin
kostum
berkekuatan
antark
kekeringan
dram
##yen
serentak
##opang
perbuk
##wayatkan
membacakan
propaganda
meriah
zak
##log
##izat
puing
kron
bangkok
ranah
patroli
akuntansi
syn
columb
athena
titi
hud
honor
##aluan
memperm
##abulkan
joe
bina
##sai
berorientasi
peneb
merata
spbu
##evaluasi
diger
cemer
terakhirnya
pucuk
manual
tidaklah
ijin
##far
princ
##gs
ketahanan
tren
rakan
diusir
##mpangan
sensitif
##dah
##ight
##ialog
manif
rentan
nekat
berik
##etkan
irama
lega
meren
nyany
##arannya
rumus
glen
alai
trin
kartini
basi
pemakai
bagh
paten
nk
##aratan
tandas
##argetkan
qurais
mukmin
##anga
seoul
teratas
terlarang
sahabatnya
jackson
penyaluran
sukarno
##entase
keri
mojokerto
instal
born
heli
##entasan
kepedulian
mengulang
history
keraguan
kesalah
##abilitas
yos
wisnu
penipuan
stephen
##otek
ikon
##egorikan
diet
transmisi
bendungan
kkn
##enta
##ape
piagam
reb
berpegang
##rio
republ
##elia
##arifikasi
##gawi
wahana
##aturah
menempel
gerej
##row
logis
terhormat
pencalon
175
##ualian
tanjungp
adit
##opia
fernando
smu
wolf
mewarn
identifikasi
105
melompat
kafe
##idap
menyembah
america
##ias
tunj
neur
menabrak
penataan
dukun
kental
##elm
##esat
alokasi
orchidaceae
jumpa
kaidah
##ges
##andakan
spontan
insinyur
kevin
otonom
melukai
ceo
tps
geologi
perjalanannya
##hur
indosat
spor
##com
isterinya
##aikum
batubara
antrean
##rey
terbitan
konfirmasi
twitter
dikurangi
menumbuhkan
kesabaran
duet
honda
##ampingan
keputus
diut
##gio
personil
ego
##xon
##22
nusat
tulus
hiz
##rough
##ensus
##aing
beribadah
##ces
alan
berbel
mahluk
tibet
arsip
##ule
bergel
valu
##udian
plaza
1928
nyanyian
##egar
utk
konstan
ketergantungan
##hh
mena
menyangka
copy
meniru
##ewakan
prev
suw
jelek
##irin
##ss
berdialog
emirat
refleksi
venezuela
##igo
palang
iain
##ofesi
penasehat
melemah
dianjurkan
tunjangan
qing
timah
lig
bulgaria
mewarnai
##udaraan
mesjid
persenjataan
menyimpang
diriku
miconia
##odifikasi
kla
nip
energ
masyarakatnya
carol
beckham
##jono
markus
giok
henti
sebenar
reruntuhan
usa
##lanjuti
##ihatin
sesekali
karunia
jarum
bercampur
pengumpulan
ensik
kotoran
kristal
cep
neo
terinspirasi
didefinisikan
terkend
nusatenggara
menjuarai
##incangan
berna
menghibur
beraksi
##rium
kesenangan
lilin
##jaz
dihapus
penyebabnya
menyinggung
antonio
1918
nahdlatul
gha
##abang
akb
##rang
diabetes
nga
html
##elaran
melapor
arn
##undaan
hung
menyingkirkan
panjangnya
##risten
bakti
hlm
esok
antasari
##elle
olymp
kesedihan
blo
isyarat
dilatih
##inati
penyu
prosesi
zhang
bord
tersusun
muntah
ntb
ly
kerak
menyertai
mohamad
arkeologi
genggam
mabuk
tombol
##uja
##emis
konstitusional
memengaruhi
cemerlang
peralihan
pelac
mengolah
memberlakukan
##uce
ekspansi
keinginannya
pengisian
trip
##aco
bugis
sumbar
kesemb
pendukungnya
##uster
pesaing
gurunya
kawah
omi
kedelai
berpel
sea
diketuai
bermarkas
peru
apel
roboh
yug
pencuri
ketertiban
subang
wibowo
tambak
mbak
penaklukan
##yektif
menguatkan
leng
##ald
menatap
temukan
bala
haw
##obo
bermukim
heart
##angkatkan
wira
benny
##uncur
lintasan
youtu
virgin
tangki
sod
##ukuhkan
##gabungan
1938
rangk
siri
##vis
##alog
##allahu
yatim
kedamaian
kebing
subyek
bengkel
semin
pelat
beranggapan
sumedang
##book
pertanggungjawaban
lho
balita
filosof
##odes
faksi
disadari
mn
rating
krom
##unuhnya
pemberi
cah
sv
##60
meluap
faham
##ulikan
kepergian
vital
mengar
soet
##aruddin
##ichi
dibacakan
blogger
memanj
memaparkan
senada
kesetiaan
##imar
##awir
asma
berhala
##silah
##opuler
sistematis
loy
##gro
badannya
selangor
eugenia
yun
##eret
sekuler
sukarela
##ograph
pengep
kebajikan
sye
sinilah
##egon
penyisihan
magnet
kesembilan
cul
kepadaku
penandatangan
sekunder
##antunya
##ominasikan
muen
sembari
misa
waduk
borjuis
mengobati
##ging
##upkan
night
lyon
kemiri
town
sembah
teringat
1933
sarah
diy
tamat
##anus
##ett
bereaksi
memboyong
bayar
naungan
ria
hamas
##ion
##ayati
diperlakukan
berpuasa
##stil
june
dbd
luhur
peratus
lhok
mingguan
##low
##ilman
etnik
cow
tembaga
mengutuk
##oting
##jazah
penguatan
kebingungan
perebutan
dibalik
mahmud
permusuhan
design
benak
topeng
auth
rc
disaksikan
biografi
pokoknya
gelas
rincian
berkedudukan
dihindari
##sius
abri
islamic
##kat
membujuk
langg
aksinya
kondusif
miring
dongeng
pemir
deal
hop
##zhou
##urne
##ute
koridor
sirkuit
membandingkan
hans
##aktian
lorong
°c
perunggu
terhenti
tbk
imbalan
etik
tinggalkan
hitungan
direkam
metab
chin
dijanjikan
mengkhawatirkan
foundation
tabrakan
nev
tn
viv
penyembuhan
bass
prom
##onto
posts
tauh
diimp
##65
other
berenang
cemas
kelen
july
##agakan
lenin
yen
terjatuh
##ign
midd
##ihari
chap
##urasi
respons
##otis
arak
memburuk
jangkauan
persaudaraan
nigeria
pik
##kripsikan
cin
saingan
kisaran
ml
riil
kesiapan
rinci
##tret
petr
jeff
##dur
##27
indian
bell
##urch
prihatin
##ungkas
mond
seleb
islamiyah
didalamnya
unibraw
uz
##oides
pemindahan
##itahuan
soekarnoputri
##akata
asyik
aqu
bantul
purwakarta
##bin
kaz
ulf
barca
istan
##bor
mengimbau
penggabungan
stalin
108
tekstil
cipinang
##ampang
warganya
perda
##ihatinkan
percepatan
##trukturisasi
hawai
##alahi
teladan
tegasnya
mantap
renang
##act
pantu
diuji
##emukan
##ikmatan
menggunakannya
sepatutnya
##irus
kejutan
pemberitahuan
fior
kebanggaan
island
##umpah
praktisi
##dar
##upsi
##iani
nilainya
inn
syeikh
##ument
koneksi
kelembagaan
alli
dialihkan
mengusung
purnomo
##xia
ditengah
##ongkong
tawanan
##onisme
##ambungan
jepun
hobi
##isma
##ript
girl
##cr
##imuti
##inggo
aa
alp
labels
trik
klip
##fic
##areng
satwa
sams
taurat
heter
keis
yon
alg
shir
pengangkut
##ujuran
dirimu
##ihatinan
got
olehnya
##odoh
##ajaiban
cis
##andanya
regulasi
muktamar
mengap
three
bergulir
falsa
tapan
##tensi
sekurang
upd
mandala
menggul
metod
sopan
kepeng
##acunan
siswi
hier
rafa
##emu
##imia
tersimpan
instalasi
kedai
ferdin
##anjur
steven
belitung
mencalonkan
ditel
mekkah
howard
##versi
billboard
##ior
semak
kura
keajaiban
##eksual
perga
dimenger
ford
penyelew
merendam
pengurusan
apost
bulanan
aktiviti
sastrawan
lumpuh
wol
musta
115
papar
tebu
braz
rezeki
terkini
##edes
kaedah
##utrisi
##bh
corak
sajak
kenikmatan
##tikal
cast
rumpun
peternak
zhou
keun
##ongi
keterk
penasaran
##kanya
penghubung
memperingatkan
##bc
ferdinand
muenchen
mengul
apresiasi
parag
ditempati
##ewali
derby
penundaan
pelopor
ridwan
last
iya
dilontarkan
##omen
##angganya
168
##odal
pelep
malas
idris
kolomb
youtube
##patah
takdir
pencaharian
transmigrasi
corn
teliti
berpihak
##oca
dihargai
fee
keprihatinan
perbukitan
##ongg
membentang
orient
mujah
##ating
geg
perbincangan
ianya
##oleon
effendi
dimilikinya
##edahan
##opel
trade
akademisi
dimengerti
bener
perpindahan
disalurkan
bca
##tom
banglad
107
##oditi
cli
##mod
agamanya
texas
sag
statusnya
meragukan
dinominasikan
monarki
pribadinya
ditimbulkan
mh
ilm
kemasyarakatan
ming
##okasikan
cermat
berkompetisi
pernapasan
sarawak
mendekat
ilustrasi
##ziarah
diameter
taraf
##nih
frag
aktifitas
risalah
ijazah
##dp
turunnya
##lot
disekitar
pergaulan
diatasi
meru
puj
diolah
mahfud
bungsu
payudara
##organisasi
irig
vin
supri
berbalik
union
konversi
dihadapkan
pendaratan
##iruan
dekan
pemiliknya
alaihi
##ates
mengesan
agam
keracunan
diperankan
integ
103
pai
##sic
permata
java
melonjak
##anegara
diteliti
##toro
##bangsa
burhan
rights
##aux
singap
##lasifikasi
card
nuansa
##engs
diputar
fasis
reply
lebah
##gon
chart
dicampur
##uters
1917
erwin
polewali
komunisme
frans
dalang
militan
ajaib
terow
idea
memprihatinkan
amandemen
kedung
kekej
##die
fp
udin
apar
dilepas
filosofi
##asihi
earth
##temukan
interpretasi
nok
##xt
##etar
siaga
basa
sarat
kubur
ditegaskan
sabah
ramos
bone
haj
##ben
mengun
##ingkir
ungu
nitr
syuting
keimanan
bersahabat
koh
##ekalan
##acy
malaya
slov
liong
perbuatannya
becak
menggi
capello
ketidaks
potret
timbulnya
survey
lengk
penump
##tator
stop
france
penculikan
luis
catur
komoditi
##ference
stroke
penyelundupan
fira
shih
menemani
pemirsa
peris
pray
story
food
narkotika
sper
blitar
1935
##antoro
spektr
itupun
makro
1937
vas
modi
##bek
##tit
##inton
director
migas
dg
##eraian
118
diproses
memberantas
reproduksi
intensitas
##siapa
oxford
##ausan
##elo
pencerahan
menggemb
duni
hori
berkeliling
moch
##jati
##sium
sleman
kadipaten
kewarganegaraan
##23
##isakan
chrys
kagum
penyelewengan
pelec
minang
##ilmuan
uraian
1929
technology
mengendarai
terlah
##untukkan
falsafah
ele
##tani
gaib
berbeza
zionis
asalkan
mencium
##ekal
poales
soed
bilik
caf
1936
arwah
bercerai
dikaruni
##43
##onic
proto
tauhid
ketersediaan
struktural
pamong
penekanan
##abisan
rej
fundamental
pengaruhnya
mawar
keilmuan
##itahu
grafis
keributan
##fal
##odin
127
barangsiapa
irigasi
##tib
ern
mulus
cew
kebers
mengharuskan
stim
partisi
##shop
bosnia
merep
busuk
spesial
##itno
squar
fiorentina
manuf
idola
dikategorikan
##yudi
sampul
lanka
optimis
clo
perges
fun
menyisakan
paral
stock
rasakan
##ete
dream
##endum
sejuk
dijatuhkan
rendahnya
finalis
##ristenan
organiz
integritas
##otongan
1927
tre
jamu
##sd
misal
didengar
klaten
penggerak
perampokan
sabda
memal
hias
gitu
##fur
##apar
yugos
membenci
start
##ness
##epr
fleksi
kegemb
komplek
##ofisika
bizantium
jernih
##eton
##etta
penentu
terjaga
penarikan
brazil
diap
mendeteksi
dipersiapkan
pasrah
cri
berkari
marak
memaksakan
gemar
melingk
messi
upi
gowa
selebriti
ditrans
kib
laun
menganalisis
defisit
ports
niscaya
##ox
##irah
kemand
##endung
bobot
training
diangkut
beracun
##ante
laur
##eva
pinggang
unta
sejarahnya
muf
memberontak
109
audisi
intim
keset
dibeb
sentra
##phone
##zy
tamil
husein
menjemput
force
visa
kimi
williams
bangladesh
##spur
dikerahkan
setingkat
laras
valent
ketem
piano
dipertimbangkan
segitiga
##ega
menundukkan
##unga
penyesuaian
mendaft
pemeriksa
##ress
melimpah
kekristenan
tempoh
##trad
mengguyur
janin
##pes
bandingkan
suporter
##jemah
marcel
##ping
shanghai
bayu
dinobatkan
pramuka
multim
lawannya
napoleon
##regnum
##mund
91
##jadi
zainal
perfilman
memblok
kelihatannya
dubai
pencalonan
tut
##aturahmi
space
kehar
jawabnya
rekon
terlahir
yord
rasyid
alamiah
tapanuli
imaj
hotspur
bangkai
mendaftarkan
zen
temanggung
1926
edo
kolaborasi
diposkan
kelayakan
menghantam
##tumbuh
diabaikan
kegunaan
##angkar
name
fis
##cia
memor
membagikan
pendanaan
ll
penyamp
lazio
##uban
merosot
##cul
berdagang
diag
sekolahnya
formulir
keunikan
martabat
impati
publish
##roho
lintang
##ois
##etengah
pendamping
##sum
teris
porifera
##yian
menamakan
##iaceae
trily
perseroan
sard
##gas
tham
menuding
francisco
mali
##uling
mendefinisikan
pelestarian
orangnya
##epankan
disin
tumbang
popular
lensa
arca
1914
##ukanya
##ict
presenter
ida
paj
##arso
dikep
budha
##osaurus
ariel
berjualan
##akur
dievakuasi
##orogo
##omodasi
wina
pendidikannya
durian
##bourne
arjuna
tg
##ebatkan
##odus
kelangsungan
diduduki
mematuhi
chir
##likan
129
patrick
baghdad
impatiens
nit
nasa
##emah
##eksikan
menyangkal
mandat
grafik
progresif
teriak
hipotesis
cilik
puri
kegembiraan
pup
##kol
temurun
sendi
entr
category
monster
##aringan
##ties
sengit
mengamalkan
terpenuhi
amunisi
yugoslavia
kejujuran
cuti
dimul
genangan
libya
ironisnya
##ette
church
airnya
kastil
portsmouth
selera
berpenduduk
cikal
##keu
championship
education
basil
##enggal
terowongan
dampaknya
judi
lov
kelahirannya
##bus
penggantian
1900
amro
##jam
araf
sedunia
tarekat
hartono
index
kelantan
pendahuluan
##par
##anai
##engat
diur
##ophia
ekonomis
secepatnya
dosis
goa
##aut
##emonstr
beh
berkembangnya
gn
porto
##enankan
ramalan
mike
hamburg
gog
##nologi
sosiologi
biologis
bertukar
self
tempatan
panwas
medium
menginjak
ark
presentasi
fly
row
reali
purwokerto
##ets
##alakkan
pemasangan
diakh
disarankan
jadikan
batuk
kapur
memadamkan
memecah
luput
##lv
##amaikan
##ibi
torres
malahan
kidul
f1
kog
128
pembaharuan
teritorial
menggugat
broad
##bb
##28
duri
##mir
mapol
menjangkau
dinihari
melayang
silva
subregnum
genc
zo
parazoa
bakrie
geomet
date
##esak
mengatas
filem
159
baq
##ishi
sign
pergeseran
keluarnya
country
##ely
##okh
qi
keten
berprofesi
##siliasi
menggantung
bersep
##km
nina
##dal
bt
napi
##yin
buruknya
ktp
##ipa
dnp
##infeksi
toba
veg
##awarsa
##tih
muhamad
tabungan
pegangan
maraknya
cheng
pelecehan
##rup
diakhiri
nop
kepand
menyewa
aisyah
our
rumusan
ponorogo
berda
##ederasi
kesibukan
##eranya
bias
stam
paduan
baterai
otomotif
750
##astr
##usur
##sional
104
pandeg
kekebalan
idol
pear
##aksel
##aktik
dekatnya
health
nash
freeport
nugroho
##oyan
##alistik
objektif
mengherankan
conn
yunus
##uld
##ways
distributor
referendum
mengindikasikan
perceraian
pengkhian
gravitasi
cambridge
##iptanya
beton
ageng
telanjang
1919
migrasi
kelenjar
perintis
prediksi
ring
berdatangan
image
bergaya
siam
sejajar
johannes
telapak
kukuh
##kulasi
##erl
berti
pengangkutan
terjangkau
menanamkan
ein
penggunaannya
vulkan
manus
##injamkan
hawaii
sho
##ailing
bekal
ov
fol
kubah
135
disimp
topi
##oter
kabarnya
expl
##atifikasi
##larasikan
nal
verifikasi
kuw
##diknas
perkasa
meteorologi
pemecahan
##sein
susno
capital
vertikal
xx
pengesahan
dibagikan
kebon
##iskusikan
rey
workshop
aga
rsud
anne
##otti
sesak
organis
kulon
berkontribusi
##iditas
pastinya
1924
memperlakukan
kacau
hayati
pengecualian
trilyun
sila
##esalan
tao
paragraf
dikeh
penjelajah
pictures
rafael
kebersamaan
konfederasi
157
dasawarsa
pandeglang
kecuriga
insentif
##otisme
memperd
##mentasi
berprestasi
##uah
dead
monyet
hughes
laman
nutrisi
reputasi
diplomasi
navig
taruna
rani
pemeluk
##epis
citi
sjah
tender
##back
menek
##incang
lempeng
pengemis
##jian
timbal
romantis
astronom
kompromi
yuni
mengonsumsi
aroma
##ibar
1934
royong
koment
##oser
serdang
pembelaan
nich
diprediksi
tumor
bernomor
cangk
take
dipertanyakan
alim
##anjar
pelakunya
makedonia
kaltim
turk
bungk
keragaman
##hidmatan
##akarsa
ketenangan
ciam
hongkong
melukis
prospek
xin
menguc
119
secur
khalayak
##jin
call
spirit
linc
daerahnya
##ompokkan
enggak
andrew
##aganya
lubuk
##mid
##jakarta
##uburkan
##ermin
dimungkinkan
matori
kendari
cawapres
karo
tetangganya
clark
dikaruniai
asep
##tasinya
jajahan
##atie
sav
modus
dijawab
alexand
diplomat
ce
period
deg
happ
darm
jol
##inia
pencern
eksploitasi
step
grant
perkelah
dijamin
pemainnya
offic
piram
naj
menafsir
##ime
menghina
meh
bebek
tercinta
satya
brigjen
pompa
##ques
penggalian
ipa
##hatan
##aptis
memperebutkan
disik
community
source
color
pembersihan
##ittle
keterkaitan
##ingkus
kaf
1932
tumpukan
perkelahian
##ading
menyumbangkan
##sche
##ats
maulana
##berry
rekonsiliasi
melestarikan
tegang
syaif
maharaja
bosan
aqidah
friedrich
terobosan
manu
macan
##imakasih
pelosok
kenn
sutra
##utaran
##ukir
##oharjo
mahasis
dermaga
separatis
gagah
multimedia
donor
hap
##umawe
penyelamat
sentuhan
##bach
menteng
berkesan
diperintah
hengkang
pemenuhan
ukur
pahala
kolombia
bawahnya
1925
##ific
pluralisme
kedekatan
responden
ramp
kyoto
government
keping
dicurigai
##ekam
##antap
monopoli
##fri
dinaikkan
taylor
vatikan
suj
##tabilan
galeri
rossi
##keras
ple
series
naruto
mengguncang
penis
155
dilancarkan
450
##inim
perorangan
diderita
rabi
##aly
##oris
harfiah
agensi
trend
soer
journal
##ekah
##abit
mencont
bros
##29
erica
##omon
potter
##presikan
kunc
kritikan
moz
monas
jeda
masanya
##here
ditanggung
pelaksanaannya
tempe
santiago
pengepungan
singapore
##lak
pementasan
mual
##angsur
##riel
agresi
they
ketemu
kenegaraan
ekstrem
special
cover
##iakan
dilarikan
salvia
sarung
##eus
indr
mencantumkan
##light
kejatuhan
##acamata
mutasi
lamongan
metabol
meni
bertulis
manuel
english
seniornya
tawa
pemadaman
apbd
##oordinasi
##espon
akademis
cacing
ilham
eksplorasi
##ohongan
residen
peril
rumor
belakangnya
kecurigaan
##anggakan
reuters
hadapi
bayang
nurdin
gimana
melaka
tempuh
gap
##jangan
antarabangsa
pengaduan
perkhidmatan
sikapnya
mafia
lind
##raya
menlu
arthur
iptek
##45
dilemp
##etaka
meraup
bergantian
filed
stress
atlantik
gerejawi
pengin
kemitraan
gandum
cagar
dibidang
bedanya
absol
singgah
kuar
##adin
##ompet
ayo
bojonegoro
hav
##buah
marie
rosi
dipukul
style
didesain
manusiawi
ruf
##esti
smart
napoli
persentase
modifikasi
raw
mazmur
mementingkan
ditemani
scott
##arno
##itri
menular
perancangan
165
pemec
##apati
menyala
dilayani
freder
angket
pasif
merangsang
##ebas
pemasyarakatan
araneidae
##fu
subuh
diperpanjang
lapor
nai
penel
##opsis
usd
musikal
1912
mohd
##umu
partainya
bolton
kramat
awd
158
##did
153
##ermo
bermunculan
menyesal
ds
pemotongan
didapati
##kukan
jamal
hm
##ebol
poros
goal
kawannya
##ongs
shall
memetik
bruce
mancanegara
pencernaan
##mis
untuknya
lebak
menakjub
cot
merta
melbourne
terbangun
khalid
vag
##ampiri
buil
1922
putu
perkan
##irakan
fantasi
##lopedia
dipat
167
anjlok
dianut
lop
pemalang
informal
konstantinopel
serambi
kerum
##soalkan
menuntaskan
kenyamanan
sob
dikonfirmasi
kompetitif
susan
menipu
yudi
guang
kubik
fotografi
istiadat
eksis
##fred
yong
##elajar
##iao
wen
##enguk
##isal
perempuannya
cewek
dorong
##urangnya
pengamp
##ivora
hendra
ceko
mangun
##ds
agreg
khair
tengku
ataukah
beper
allium
jik
##mus
##bat
##ajaya
alergi
agromy
kompor
idi
##ampil
abc
##karn
diancam
diminati
##hie
diamati
koto
perdan
##ekaragaman
mempermudah
##nat
##band
##hin
##erland
##iton
dili
##aire
kontrad
lokasinya
limit
fulham
ritus
melempar
berin
owen
dipasarkan
granat
##inambungan
penambangan
computer
dipelihara
nurul
kontraktor
terkec
heri
menakjubkan
pow
##ops
kera
##obos
penutur
kecurangan
penyiksaan
terpuruk
menghapuskan
yul
##yati
##olia
bersikeras
##oroti
simpatisan
barel
dibantah
menampakkan
cro
luth
kalsium
hosp
bened
perusakan
mahathir
##tional
ormas
mexico
keputusannya
berabad
##trop
tuban
meluncur
kanannya
diusung
cag
##qah
kembalinya
101
wiro
doug
cry
fon
biak
##olongkan
##belak
kesetaraan
bian
sombong
intan
##omong
prad
timtim
##untik
lagunya
amrozi
rekreasi
kiat
prix
kaset
kewangan
duo
##elakang
##andum
skill
nowiki
terkecil
bundes
jaksel
led
bio
deskripsi
terinfeksi
##endo
menyedihkan
speed
mengesankan
menumpang
cakap
retak
reza
##yangan
akidah
menerimanya
fatal
roll
perfor
##adio
kargo
anehnya
jurnalistik
paha
berambut
spong
penca
tudingan
syamsul
##elintir
jemp
##ido
spr
ama
jelaskan
mandarin
##ange
##ogon
##baran
resm
cyperaceae
##emoni
asw
##aksir
tergel
ibunda
##ste
1931
richter
##vir
khay
berkepanjangan
##ices
##edib
laptop
pernikahannya
dieksekusi
jami
memfasilitasi
timb
123
porsi
papa
##fc
##enza
bahw
##abe
osaka
sepupu
##ching
##timewaan
mara
keanekaragaman
##ukiskan
##ingankan
otto
pengkajian
##roto
##endemen
makkah
117
ukiran
naiknya
digul
##awahan
geofisika
hos
theod
marri
##ograman
##enggan
pendeng
thai
menjel
##untun
##igurasi
kuhp
diesel
awang
ulu
lingkungannya
kancah
perkantoran
luapan
1905
apostolik
ranting
esp
talk
menyiarkan
ratna
mengepung
##yun
phy
terhambat
miz
dikawal
optimistis
##husus
##erti
sekilas
bersumpah
lobi
berjumpa
konspirasi
jaring
kekuatannya
pengisi
didistribusikan
modul
pamannya
ltd
##osongan
banteng
parit
domin
resimen
hoa
##enburg
##arui
ditump
moskow
##langga
##oret
homos
gitaris
diharuskan
xv
##ovan
bps
rin
barry
pelap
senen
chili
imm
163
mewarisi
kapolres
florida
##kon
terpecah
mengeluhkan
kekejaman
rd
ditinjau
diperuntukkan
brad
mengadu
##udu
andy
dikenai
fram
##zali
##26
anakku
rhod
ustadz
luna
urat
fisk
pj
penyul
marsh
tvri
keistimewaan
manggar
memand
alban
##endy
membimbing
restrukturisasi
nyonya
terkendali
bepergian
lock
little
piring
dani
semut
kehabisan
andaik
##incar
berterima
eva
jib
patih
herbivora
rain
menur
menyatu
mendalami
keseb
ksatria
begin
puting
eriks
jejaring
memfokuskan
##ips
arts
berangsur
duniawi
mengabdi
##seumawe
pencak
gym
sedia
hits
legendaris
gantung
##gate
##orus
stef
chat
145
nukle
berpasangan
pemecatan
minor
perancang
nafkah
dad
lurah
merob
melati
prat
gerr
andaikata
cob
##ayarkan
##teru
##don
##rum
teuku
menerjemahkan
sac
##lakuan
manila
keberuntungan
kesihatan
security
tesis
##agih
konstitu
mengusut
##imbangi
abstrak
bni
tertunda
pucat
fahmi
disimpulkan
perik
##ogba
setelahnya
kompi
ahl
tangis
##ground
##iliasi
porong
lembu
##olution
berbahan
##olinggo
penguc
##lahu
mencuci
##chan
lampard
##wich
##apainya
aljaz
mulutnya
menakutkan
kompilasi
113
camat
ribut
angkot
gamelan
heh
##oven
1923
keharusan
money
eth
matt
haknya
class
pecinta
terburuk
lagip
lhokseumawe
perisai
kres
shihab
homo
assalam
vinc
##tz
instan
##ertaan
rindu
##tium
pemburu
kebumen
berlainan
kayak
perantara
bersinar
optik
##achus
smpn
performan
##isap
##ampakan
information
mengutus
##atani
2020
polic
pembina
dibekuk
##rida
ditindak
giat
lingu
ditanggapi
pelepasan
##lasifikasikan
##italisasi
sedianya
lubis
tian
##uko
dihimpun
tegangan
berkarier
##formasikan
lukis
kesayangan
skrip
ajax
bergaul
merampas
than
romo
boston
parasit
##icus
kendal
mengamuk
pemandu
habitatnya
##des
pemuka
sekte
het
didatangkan
roberto
bilateral
##aafkan
beranjak
berhubung
pmi
pent
koes
ketidakp
getaran
##loid
##ival
hakikatnya
parameter
##inggit
kamer
##pal
sekuel
kelengkapan
cham
garapan
meminum
filmnya
106
elang
ziz
##shire
simpan
##inium
berjasa
##ellow
kristian
yani
pendak
ikuti
solok
kepengurusan
duanya
mario
lonc
tabi
##mak
pav
##osisikan
jad
vel
##eskan
dibongkar
bendah
gard
dialam
##etahuinya
simulasi
kairo
hk
menaiki
pengalihan
dipan
dihilangkan
##essor
penggamb
sambungan
##apang
##andangan
tran
krimin
berkonsentrasi
harvard
kennedy
qa
wild
sakram
##ontar
jane
quraisy
memorandum
kesenjangan
justeru
##arangan
##ijinkan
dato
cristian
mangga
prusia
cilegon
musiknya
delta
##awiyah
petir
tara
##gaji
mempergunakan
tawuran
aljazair
entitas
simpanan
noor
##padai
asmara
##uet
mengasihi
##ajal
##odohan
wars
ditempat
reading
##track
menyir
kultural
vul
kamal
benci
##eneur
runner
##rong
menyandang
manakah
registr
##uktor
ketiadaan
lelang
beratnya
gerrard
##kul
diund
pemuj
pendengar
diculik
binti
sokongan
jp
perawan
membas
telak
noordin
tuturnya
##etuskan
pengembalian
menenangkan
unesco
polusi
litur
flash
katakanlah
##budur
mt
abidin
1910
make
kerjakan
eriksson
##fas
##kantor
forensi
##uble
##ombaan
##esterol
ekstrim
pemkot
##adia
harmonis
melemparkan
##lementasikan
##mel
krl
##omyza
nitrogen
##cayakan
pelajari
##ugo
second
gejolak
endang
beribu
##neg
##taz
##ebihnya
berkala
gencar
moder
mengulangi
menyokong
diberangkatkan
bertema
probolinggo
##bil
chil
professional
firaun
arr
##icuhan
diperhitungkan
pikirannya
##bondo
borobudur
##odend
direbut
ampun
##etaan
ayahandanya
penandatanganan
kemandirian
mts
##engka
##utat
buddh
dum
##into
act
pemrograman
sudi
menyuarakan
berkap
repot
kiprah
isbn
family
guntur
barito
berbelanja
reaktor
pamungkas
factor
wita
kericuhan
##liga
memprediksi
merpati
urugu
hijri
aris
dilewati
perlombaan
nkri
borneo
##tos
##mawati
arc
##ulisti
menyertakan
##alung
permen
nasrani
diadili
##uu
ramli
host
zam
sey
terjangkit
walter
meringankan
penghentian
diperluas
bercakap
cv
berlatar
dalem
ditinggal
aula
haid
arsen
situbondo
hussein
riba
melambung
urut
tuanku
mengesahkan
dikehendaki
##inea
mengevaluasi
ax
kawat
nonton
tertekan
columbia
marco
farmasi
berinisi
harusnya
acco
##limen
mewajibkan
exper
imlek
selebihnya
##isial
rudi
juve
kontin
mamalia
kuantitas
##ategori
176
perdata
ringgit
##eping
##other
amar
nasr
keponakan
keppres
spin
khaz
fabaceae
feri
wilson
influ
jasmani
dipersembahkan
1921
predikat
##ampar
membran
secret
gom
##eon
##ilh
##esk
##atangi
kekeliruan
rebo
jubah
orkes
##ences
##kie
links
barak
kebohongan
mengedepankan
sean
##agara
##agangkan
samurai
penyampaian
like
##issa
pelanc
terbawa
##atalan
inov
vib
##ingsih
kepausan
menggagalkan
uruguay
kawanan
silsilah
body
square
ngawi
##alim
memusnahkan
saing
pascasar
##sian
##ileri
##tice
##ampanye
##akuti
week
aristot
dipering
pundi
ujungnya
##jai
memberitakan
author
paud
dahlan
saksikan
ukurannya
pacu
kirinya
##aktifkan
metaf
jing
sach
##engkan
rini
studies
roger
dipulangkan
menyodorkan
soalan
##awahi
magister
tengkorak
##erbai
representasi
stamford
##mes
must
varietas
cemb
fabi
mekar
##hon
##osom
acak
##iput
produknya
dipenjara
job
menyakit
138
tenis
ngomong
eropah
##xy
ani
medi
##real
zah
##arium
memanjang
azerbai
ericales
##wig
terulang
solat
informatika
pemicu
there
benz
blbi
menafsirkan
shu
anggrek
##okoh
dangkal
##fsir
##iday
##endahkan
kelelahan
exec
thalib
darul
##alsuan
rongga
##alap
bersuara
jilbab
menjelajah
polemik
##ebek
jebol
tt
##otot
hakekat
section
kontestan
##wer
die
##ulin
sabuk
amino
kecemasan
tevez
##bullah
##laren
mancini
dirumuskan
nepal
tertidur
fransis
ganas
terumbu
pemprov
kedudukannya
athletic
luther
sembahyang
lai
rov
##onisasi
wij
aston
menghampiri
reser
merespon
zhu
##anjakan
kalig
mits
pacific
dijat
berisikan
cyber
imajinasi
hd
abram
jakpus
pascasarjana
dikaji
##enggung
137
basuki
##zidae
pelak
penyatuan
##acanya
lindung
tog
pemberlakuan
percetakan
endri
##tac
patuh
teriakan
manuskrip
mengom
anom
maroko
sate
php
boliv
caesar
kemahiran
##afikan
143
##angkaraya
##asah
selagi
##entari
kejuruan
tertanggal
natural
imperialisme
##manuel
genap
hibah
page
death
forensik
ktt
drogba
kiriman
##lion
four
jogja
jord
didakwa
pleno
exp
pertanda
##lig
wilh
##tinggi
penn
dikritik
artileri
putar
berant
##oha
##wari
##uktif
##ayaannya
asin
feder
type
##ultural
rag
mengupayakan
##embus
cond
##rejo
keas
sebanding
menggambar
singh
megah
palangkaraya
ajakan
tipula
##ento
parlimen
untungnya
berebut
##acita
dituturkan
whit
cust
##oreng
harris
penebangan
kemunduran
menyamar
bergegas
muslimah
sentimen
diperlihatkan
fiskal
pengambil
dikemas
azerbaijan
mendo
##akarya
ciamis
mengik
berkampanye
temu
maritim
penggambaran
narap
defender
blackburn
hob
antisipasi
##entangkan
dibayangkan
maur
sket
bocor
villar
##anggilan
dinar
cec
fikiran
kesempurnaan
##oyok
antibi
##aper
menghir
palm
pembubaran
kuwait
pemujaan
##iknya
##osir
bermimpi
menyeret
berpeluang
senator
pelaut
##alit
ketr
dimulainya
akut
berkulit
dragon
gill
##dasi
trim
malap
racing
sumbawa
hj
##mont
lewis
sei
prin
terkuat
##gu
negerinya
privatisasi
##nnya
##usc
##rax
dirayakan
khotbah
janganlah
dikisahkan
##ungguhan
pandawa
edy
##umbung
veget
bendahara
segelintir
antre
kredib
shim
iri
##uak
##editasi
ast
terf
##iba
##unding
ikutan
mayjen
toraja
##pm
meli
##likasikan
##esmian
##anah
seberat
pengedar
purb
##gy
melebar
pengalamannya
margar
##ungsikan
sambas
tersed
padam
tulung
tertimpa
rintangan
item
tinta
share
uncategori
##rar
##aham
digabungkan
ekstasi
##utamaan
suri
manggarai
##ganisir
soundtrack
jor
gatal
diadaptasi
##hah
peresmian
##umpuhkan
break
hospital
kacamata
##ajan
dirugikan
sudan
uncategorized
pelita
husain
hangus
trafford
yordania
cakup
##apr
moon
merekomendasikan
fabales
sukan
didek
konsepsi
bubar
##yut
##athan
pierre
memalukan
num
mendagri
pembatalan
girls
kekasihnya
mengek
berbincang
diberhentikan
melontarkan
berdiskusi
dokumentasi
yogya
terhindar
fond
##kati
memihak
tapak
muzadi
rcti
nopember
##yr
narapidana
##gap
penggus
counc
datab
resminya
pastikan
cuci
termuda
pengasingan
lonjakan
pter
##git
sesiapa
antarik
berlindung
mush
input
eka
149
ghana
##jipto
keab
##okimia
menjer
sanak
prinsipnya
imbuhnya
sekumpulan
##akiti
berpaling
landas
alangkah
when
ketidakadilan
istanbul
sakramen
endriartono
halamannya
##ahb
##ampuni
didasari
##risno
eddy
heru
myrt
pemasukan
mendiami
laj
##biran
implikasi
##ides
melun
perburuan
pwe
##ahw
diikat
mengem
unic
diramp
164
akhbar
atraksi
##amba
penggusuran
imag
133
contin
virtual
##anggungjawabkan
fantas
##etri
amaz
##impahkan
their
teolog
benarkah
golf
kontraknya
pengger
harapkan
maknanya
147
##onif
bundar
chaer
psiko
hell
##upas
membunuhnya
cour
perwujudan
anthony
##apas
saudari
##hati
kasasi
santun
bertuliskan
titan
wangi
perusak
mencolok
berskala
156
##alih
##ocoran
##enggu
sorotan
##amalkan
pengajuan
dirujuk
chu
diterimanya
berkol
139
persoalannya
kilang
ary
pelangi
brows
persib
gabah
##mingham
##oster
support
kolesterol
carlo
gelisah
iraq
pud
kelakuan
ditunggu
mempekerjakan
meditasi
sunni
mekanik
##vention
newton
##uasi
##etra
bersamanya
menghalang
sistim
oil
berobat
##hususkan
##ikot
gala
bermutu
council
versus
##aur
selebr
menjenguk
##shev
##ovo
horor
bujur
kurus
sayyid
birmingham
korporasi
peka
##usukan
mahdi
dhani
sos
ketuhan
trofi
psikolog
gencatan
two
##dayakan
##atum
mustafa
ejaan
##ongo
dibel
kamila
membantunya
116
konkret
114
disitu
##oj
dibersihkan
asri
mengurusi
amatir
pbnu
soul
rachman
drive
takkan
bagaimanakah
penerjemah
menyesalkan
til
hmi
##inas
166
##acker
##awirawan
agromyzidae
terkecuali
bingk
##olaknya
artic
parad
penyeberangan
##anium
pangdam
hadirin
berkapasitas
berbakat
##evolusi
##enggel
conference
renungan
lumajang
purnama
lagipula
bra
sher
penggantinya
tarikh
##ipi
poly
mengantongi
ringkas
##anangkan
penertiban
pandangannya
side
jiran
adnan
kelulusan
##oboth
pokemon
jamb
##orot
menghemat
menyakitkan
sanj
membesarkan
dilupakan
##ask
kejelasan
##ston
taq
fatah
humor
sports
##eros
lady
pho
aktual
dibina
terut
spesifikasi
bergeser
kij
nyat
tad
persawahan
brian
pantura
hitung
which
kaus
proper
kreasi
purnawirawan
ober
##imus
scre
wisma
proporsional
dikejar
hea
##feld
##ondo
suzuki
yuli
palermo
##kins
dipercayai
menyoroti
##ogiri
sambut
##apian
menelusuri
ambruk
1913
matematik
mongolia
##ikuler
perbud
##rafi
dire
graha
1908
database
##imer
lengkapnya
analog
albania
##overy
##impahan
subhan
saking
##cs
berdampingan
report
thamrin
nes
jenewa
##amoto
##iting
##ontrak
##ikai
pengarah
yuk
bundaran
naras
milisi
mukj
##angkala
jambu
##word
menghuni
##play
menganggapnya
diperkenankan
kesucian
bersabar
169
belia
kampar
bible
dimasak
##assus
##onesia
inci
##tori
board
##hard
koruptor
##cu
##oloskan
manufaktur
124
##ploitasi
##hul
##beria
trak
sabun
argumentasi
tarakan
##oros
pendapatnya
##edakkan
dance
meredam
absolut
##umulasi
##ebob
penerbang
antropologi
heinrich
serig
nato
output
1911
wiw
##een
##boy
##iler
kaos
##lamasi
##mit
##ingen
##etto
pentad
##emba
dimusnahkan
berlakunya
jiwanya
katie
dikon
transit
wayne
fabio
##osip
##stan
154
guy
##untukan
meth
##sos
##ularis
islandia
plato
after
bahwasanya
menghimpun
kapas
##urnian
christoph
pemkab
spektrum
again
mendahului
bernard
menyesatkan
performance
timika
diriwayatkan
donald
##yung
terangan
##engku
persimpangan
mempersembahkan
myrtales
kle
lisa
resour
##utuhan
haiti
##urnya
##ukuhan
##ulitkan
baqarah
lanjutnya
##akus
pard
nakal
lui
ditentang
comte
phk
text
sansk
update
konsolidasi
##ohid
prosesor
mengemban
spongebob
gotong
pungutan
kesemuanya
panwaslu
bajak
jadinya
##ns
##bes
##resentasikan
ketuhanan
##bp
thank
173
sperma
pencabutan
hui
laris
melantik
halangan
memesan
ngo
migran
wigan
syamsuddin
content
konfigurasi
##obot
katak
##baharui
kbri
fragmen
omar
vcd
renovasi
##night
devisa
pengendali
maga
nation
sunday
pelarian
hiu
sakura
gilirannya
ketrampilan
chironom
terimakasih
ilir
laos
raul
batara
express
ketidakm
menyeberang
kakeknya
gemuk
terkumpul
sharing
dituding
terintegrasi
menyusuri
jesus
bernuansa
perbudakan
keutuhan
##incir
dipromosikan
tm
##osialisasikan
padaku
arabia
diserap
fashi
diand
##edikasikan
hasanuddin
##ugerahkan
diberitahu
ngga
pssi
henri
happy
serigala
iris
jasanya
sutan
equ
paran
menerobos
##stal
study
##barui
esai
karung
neder
obyektif
##matik
kecaman
primi
allen
nokia
tangkap
##ols
agum
benj
terlaksana
menggenangi
##uction
kwik
penghinaan
uangnya
pemberh
dalih
##rutan
##cm
##ipe
reds
hanafi
##erhan
##ils
dramatis
##elangan
jahili
dod
advokasi
tandang
##dinho
##sg
##anikan
mengidap
##optim
base
##esponden
disapa
sedar
##ocr
silaturahmi
pendahulunya
memuncak
menyulitkan
126
selaras
##obar
entri
kanon
ishak
pelacur
bow
melengk
interior
depdiknas
baptis
terbar
menerjang
tanahnya
penghujung
menjauhi
##tipe
alonso
##ubsidi
##opus
membek
##ocera
##mpu
senja
hindi
vlad
##aksim
bundesliga
beluk
manik
bukittinggi
europ
handal
memecat
##ingungkan
##eknik
ultra
##imbun
sugih
rakitan
trek
##okrasi
gairah
angan
tergenang
didatangi
102
pdb
villarreal
betis
rein
umatnya
wass
penyandang
bareng
##cht
pala
##iringan
tabloid
##kal
sepihak
menjunjung
berlebih
silver
kenya
rusa
tasaw
mengecewakan
##ubes
rambutnya
ronaldinho
ricuh
observ
##uria
baron
klim
kuliner
##tanegara
paparan
##quir
##usnahan
terutamanya
##enggang
ditemukannya
xvi
brantas
mission
144
##tabilitas
mentrans
perajin
berpura
milis
babel
christi
sketsa
saj
realistis
douglas
mangg
##igrasi
diperdebatkan
fashion
meri
berbangsa
dijatuhi
##aimin
pengej
ikat
satpol
helm
filosofis
rug
##amus
berbuah
menumpuk
zar
sembar
setting
tersingkir
dijabat
gadjah
tajuk
semiper
##emonstrasi
##yalir
disebarkan
persatu
baby
kuantum
travel
mtv
rose
##elotti
berakar
saus
kesakitan
tercermin
economic
cowok
##inding
transparansi
berdaulat
##iliter
##integr
kebocoran
bisnisnya
tribun
zakaria
policy
nations
proton
convention
cintanya
tower
##faatnya
hamengku
navigasi
gantinya
berkurangnya
kurban
kantornya
menata
rambu
disamakan
tragis
kostrad
menyayangkan
double
shahih
kijang
produksinya
balon
moralitas
cruz
berkenan
sembarangan
gri
huta
merantau
musnah
terpasang
regu
langu
taufan
kencing
metabolisme
memanas
penginapan
haus
keterlambatan
##kas
##enberg
teles
keterbuk
bilamana
hikayat
moy
##emasi
##anggi
##ingkari
menyeber
##ledge
farid
ketertarikan
jibril
##aat
##arif
kadangkala
mengorbit
rimba
glas
oksida
chief
berkantor
##angkis
sallam
leluasa
##ancarai
pembuktian
barack
polkam
##rix
digolongkan
##efl
berkolaborasi
evolusionis
##enggelamkan
melan
##ahannya
fleksibel
diuraikan
suster
tinjauan
virginia
cost
##yawar
hul
siliw
political
ketaatan
agregat
dioksida
marsek
148
beringin
##embar
kongo
cendana
jelang
kesuburan
sulitnya
menjauhkan
beradaptasi
temen
##alak
kedubes
mahir
ajar
moskwa
wag
##epsi
mobilnya
lemahnya
##ihir
realisasi
subroto
##eds
yoga
cai
tertera
##okkan
arang
kekosongan
##ombakan
juniornya
digerakkan
siliwangi
marsekal
fall
hani
penemu
##achi
daeng
circ
executi
wilhelm
toni
##enium
assist
sampang
sesetengah
bankir
pojok
energy
kemiripan
piramida
mukjizat
pemberhentian
pengirim
##alisir
suaka
pake
keturunannya
natrium
sintesis
##att
berorasi
math
##zin
##urung
pemanggilan
yer
alfred
ashley
ign
beruang
##ilet
##cho
pandan
cooper
ancelotti
portal
##awancarai
moden
clinton
dihadapan
cemp
disaat
##aspadai
##icon
menguraikan
buddhis
rantau
observasi
##bl
disalah
keemasan
##rick
##biyah
##col
##etz
##ungkiri
cabai
wonos
klinis
disiksa
wakilnya
care
kresna
jajak
ekologi
lingkar
saman
sidik
##eke
##lamat
mengelak
sebutkan
purworejo
##urga
profit
patriark
karanganyar
politeknik
shallallahu
sirip
##andaskan
##arani
kasta
112
url
##eller
pemasok
harmoni
diagnosis
zan
sepertiga
##orsium
most
semisal
berser
abdi
mendekatkan
letkol
kentang
linda
seorangpun
match
kurs
bei
##bukkan
##ogokan
block
syahril
yehuda
memusatkan
##sif
bubuk
mediter
kegiatannya
##pet
diana
dilap
##cas
menggug
muhaimin
nederland
##fli
pusp
tindakannya
persik
gambut
keyboard
ninja
heg
##jal
##ando
kerang
disangka
faktanya
nyai
rival
notab
deter
dukung
menungg
berurusan
benturan
melemahkan
local
sumsel
berlomba
##imbar
menyelimuti
penyelidik
1916
menggalang
paper
relief
hidayatullah
tonton
peraih
##oblos
telaga
redkn
##etat
kuota
pale
disisi
saddam
kill
##engsi
##ubat
menimbang
gayus
sao
genetika
lec
dipamerkan
redknapp
marse
pasangannya
horiz
keterbukaan
keutamaan
menyempurnakan
##rioritas
astra
deretan
kesepuluh
linguistik
mao
penerj
memasok
##adewa
ril
writ
##asemen
penamaan
blanc
##box
ungkapnya
proletar
kedepan
pengampunan
mengiringi
##tisida
220
penunjang
utomo
##islaman
manfaatnya
ibadat
morf
libr
sindrom
gaz
mta
pawai
##pers
moderat
bereks
##ussel
membalik
fatimah
joy
ranc
keadaannya
konsorsium
some
##atio
kelel
ard
kondom
bernegara
dijalani
##ants
##epi
mantra
membangunkan
queen
##jong
##okar
ambang
##tow
##unggal
##tut
##atib
yakub
keringat
kanj
rasis
##ław
##tid
einstein
fid
##alisa
kilat
common
pengasuh
jikalau
kearah
liturgi
meloloskan
##bank
menghadang
kebenarannya
nord
penin
pastilah
short
##tabes
damas
lanc
emang
prosesnya
burma
terciptanya
gigih
sjahrir
haris
memperbesar
##ilit
penul
##rikan
stone
gadang
jagat
##orer
##iharaan
pagan
tis
temui
##ormal
##ugasan
terseret
silinder
cucunya
pepohonan
slovenia
galil
movie
executive
kuku
##elatan
ink
terduga
delhi
elektrik
kontradiksi
##ahasi
aristoteles
##furt
sedekah
penyangga
artistik
miller
dituliskan
plasma
memikat
dikor
nugini
##ahwinan
##sw
brom
mengagumkan
##oleksi
penet
peminat
berbohong
antha
perkahwinan
field
berantakan
menargetkan
berasa
penunjukan
merger
buff
ghazali
fai
##bury
pertanyaannya
koc
kwi
anthaxia
lau
mapan
najib
##erna
##unaga
##adona
amr
persem
##ebal
edwin
##ouw
dikelompokkan
cyperus
cafe
jodoh
##eira
##amo
memaafkan
bergengsi
terbaiknya
nara
menantu
##odera
keramat
punk
loh
##latan
174
ubi
mencair
mengecek
##enos
serd
sesamp
conf
syahid
jawapan
##urri
dirasa
dihiasi
universe
algorit
##amanti
berseru
umay
dihapuskan
qatar
##pam
penghancuran
kanton
tamunya
gord
ve
##sar
agu
##ological
kapuas
indahnya
change
##rioritaskan
cav
ditaksir
terbenam
bertandang
perkuli
bermuatan
1500
kadir
hatiku
entrepr
tembang
meniti
beku
narkotik
pig
##ilat
perhatiannya
hoc
##parah
##abis
pengaman
pengoperasi
kuc
bersekutu
cakupan
muar
number
berdemonstrasi
fiqh
notabene
##itte
##ayaknya
konglom
menukar
paralel
building
kebayoran
entry
khid
merambah
balok
toilet
fitrah
mengekspresikan
lg
voting
dilibatkan
siregar
rms
beraneka
menggulingkan
vern
perab
koresponden
socc
kabul
ral
membingungkan
##lee
ketenag
rovers
berlangsungnya
inovatif
menyeberangi
peninjauan
sambung
menawan
##ewatkan
cerai
kath
##inn
keane
prag
##uliakan
##onium
flora
ey
penugasan
dibayarkan
##ofil
kutukan
huang
mgr
penolong
menyalakan
dijangkau
transform
##cio
##ift
pengerjaan
alloh
hent
menyemb
seminari
##aktikkan
##rel
diutus
konsensus
skep
134
beraktivitas
mencuat
eti
site
##gawa
sepakan
tulungagung
lih
tertahan
gluk
##entralisasi
partner
kependudukan
##uluk
amendemen
##ective
kiki
pembesar
pembangkang
kehebatan
kapital
swe
rank
##aiannya
memutus
check
dubes
dst
women
seadanya
anto
mardi
chrysoboth
##alaba
##ombolan
narasi
saka
##zation
organization
chrysobothris
wimar
##esona
major
brut
teleskop
##dani
##rc
##rod
merendahkan
##angkalan
mempertemukan
eduk
##sono
diusahakan
kelinci
##uncing
fotografer
ferrari
primitif
gb
cher
mandailing
##undi
##ulyo
##andro
ulangan
bergen
3000
finish
rotan
tril
kediamannya
mengum
ketel
1906
sesudahnya
fiz
nba
wic
pelarangan
kemudiannya
tunisia
resist
direkrut
##gor
##sei
perokok
pepatah
gunners
cesar
eas
pdt
penegasan
oz
suc
airlangga
dicegah
books
pramono
##enz
meneng
##idan
##epit
membacanya
think
pulsa
koreksi
calvin
tomat
nelson
kesemua
merangkap
##otai
anggun
##aksono
efektivitas
##ista
pengus
tdk
##can
season
gerhana
cod
pemangku
mencamp
anderson
menekuni
getah
##edom
biola
##ancy
acap
afp
kusuma
fundament
merugi
##main
daur
bangkrut
##itra
penanda
berkh
berkoordinasi
player
##nus
seram
perjudian
lemari
1915
ampuh
cong
##yanti
kejati
use
membengk
malaria
##oco
lukman
jonathan
karirnya
mengangguk
##ohidrat
guan
##ukuli
rena
xu
##info
penayangan
myr
##opulerkan
##odendron
##ikatif
##ores
##abet
kash
andrea
ekonominya
lans
##utunya
##okat
billy
berkenalan
peb
merintis
##uarkannya
imran
gunanya
##enhagen
kelamaan
arteri
padamu
gabriel
selir
chip
madya
212
fadil
kd
akumulasi
kuatnya
sisilia
rodrig
mengungg
nova
gary
##embunyian
##hao
ott
nazar
nona
disatukan
metodologi
chironomidae
see
##intesis
frasa
serdadu
many
kecintaan
irjen
president
likuiditas
perusahaannya
tentulah
diploma
bawaan
semiperairan
ips
disinggung
wni
xav
##ebarkan
berbunga
mou
tampan
mendaki
genoa
resah
mendeklarasikan
monitoring
selim
indie
##torasi
suplai
dekrit
palestin
pemben
bersandar
based
ketidakpastian
gali
tertuang
manuver
perkuliahan
bia
##lung
##shevik
diandalkan
rawat
##akoni
##orum
selayaknya
andai
sink
wahab
legitimasi
basri
minimnya
buntut
##olehan
berjam
exc
alaikum
berbuka
bandang
berisiko
pewarna
##yatan
##apu
bertab
##ilir
##angkai
##nitif
berjangka
memadati
danny
##arifan
dipandu
##herine
istiq
menelepon
##lit
##ulator
memproses
djal
sanskerta
menkeu
plot
superi
next
tiri
nasehat
##enne
menyepak
wright
diis
print
estonia
nunukan
##fsirkan
##itch
bermus
atta
gelora
##antina
kalbar
##ongkaran
perpisahan
##ampingkan
sensasi
##atul
ceria
slow
akb48
##ved
distr
scan
menggantikannya
wordpress
##gensi
##tav
kalib
kurni
enterpr
pantun
##mae
bertumbuh
136
bojong
kekeluarga
mistik
dimasa
norman
sekej
##afar
dewata
ping
quan
wakaf
resort
niatnya
bangkalan
bintik
lopez
rembang
mertua
mendiskusikan
terpusat
majal
mengalah
##osiasikan
kpud
notaris
##market
registrasi
prince
gub
##mers
prita
bagiku
sepotong
kaleng
bramanti
koordinat
android
original
##uin
##trian
andal
difokuskan
baitu
terel
##ken
puteh
profile
estadio
##tainer
dipus
venesia
bertubuh
##aksimalkan
##otori
##opol
tercemar
menghindar
kent
meminim
dikec
kaval
maling
jenuh
priok
tint
terusan
syaraf
sunderland
yuris
##ukuh
dipikirkan
menghiasi
marxisme
raihan
andri
wafatnya
akreditasi
chairman
langkat
menjebol
harum
seno
salahnya
komplikasi
konsesi
eksplisit
sanggar
mempelai
diganggu
menjelma
gk
hali
nh
kearifan
pedas
gembala
##tukan
perez
penghalang
panembahan
mengga
##indra
mesra
##asu
suksesi
value
matr
##alism
klarifikasi
konseling
diawasi
amf
herz
sembako
dut
gawat
mung
s1
moore
message
wing
##bie
sebatang
halo
berkeinginan
cemburu
##bol
mencipta
berdamai
sars
television
hash
narasumber
bungkus
ft
flav
##apapun
##ukunan
kedah
##ombak
jatin
administrator
ucapkan
hunt
luh
melaut
##otasi
kantung
nurh
luwu
karbohidrat
kognitif
rhododendron
waralaba
##eriahkan
##ancaran
##urizal
diwariskan
keislaman
##ilian
dipinjamkan
saudar
##olio
jimmy
##hianati
##erm
##alunya
komersi
rif
nasir
renais
prasangka
aleksand
valentine
##org
blora
berteman
menurunnya
detasemen
blackberry
marxis
wonosobo
dlm
##vy
##ebur
korsel
malapetaka
rest
##etin
##engger
##incangkan
sdr
bhakti
desainer
financ
marseille
tangkapan
sekutunya
parang
meninggalnya
herm
cell
berlibur
asteraceae
mendiang
merealisasikan
mengusahakan
issu
munas
debit
diperdagangkan
##ines
##ampek
##epos
membeb
##uruskan
konfr
##alink
ziarah
terisolasi
kekeluargaan
bic
yaz
budiman
##ombinasikan
satgas
globe
menyusui
boyol
kepimpinan
ditjen
dididik
klo
ipb
##etts
sebastian
aborsi
pentadbiran
warnanya
##aksinya
western
berz
thian
matlamat
phill
penularan
diamankan
##agat
terlatih
mahendra
diselidiki
##okoan
vulkanik
zur
##ici
peace
murtad
memperkaya
kolonialisme
gulungan
gonzal
account
##dem
##gau
states
menindaklanjuti
##sson
diburu
kebaktian
pemantau
ime
walu
alis
daring
irfan
persija
1907
zay
##atatkan
ditab
terak
menggarap
masukkan
sarapan
phot
sulteng
independent
rudy
femin
jempol
kalam
rampung
penghulu
ringkasan
dadang
##luaskan
suro
zamannya
dituangkan
diklasifikasikan
peliharaan
satria
laser
handphone
kandungnya
pertokoan
##icum
dpt
cerdik
gaj
##sing
##embagaan
konseku
blt
nyi
tanjungpri
##lvania
gie
yap
melumpuhkan
suplemen
##arum
pembongkaran
##ustin
trio
1901
renc
##bian
##amia
mengetahuinya
##elopori
sugi
jaraknya
cipto
##oshima
bidadari
##ponsori
berkesempatan
##ray
beliung
sindikat
benjamin
##less
menusuk
##elor
##urukan
##ayap
menghang
ethi
rejim
##enep
menggembirakan
horizontal
##atin
##elawan
meresmikan
meliput
bubur
bolivia
##elon
pertambahan
samad
kopassus
antariksa
##ilin
##evo
##ftarkan
##oncong
jordan
nyatanya
##ents
pencetak
nim
##sell
adang
terperangkap
##alo
##enggut
sinema
wahyudi
##regas
siak
fanatik
marilah
sukoharjo
pengawalan
gosip
##abisi
konsonan
munaf
membelah
##onder
modernisasi
sahamnya
jengk
##tualitas
keren
dikem
berkisah
medical
sirkulasi
ditutupi
bjk
##oles
gerai
dean
majikannya
hed
beres
##time
sekar
bertobat
ojek
##ruh
teramat
pelengkap
terjalin
mahar
jiang
##acher
penyajian
peribadi
bohong
hugo
sergio
kesungguhan
menggalakkan
asterales
sasuke
mudanya
benedik
lane
pack
##akawan
kelal
desk
gelang
jitu
koper
mendeskripsikan
monday
bem
menolaknya
##adis
paulo
##yol
badak
ajarannya
carter
bhik
##penas
genting
##eun
them
persembunyian
kavaleri
##tebr
warni
##eteruan
111
neill
menyambar
sangatlah
abjad
bron
azz
penelitiannya
aparatur
pagu
##eas
##qa
##inata
##ebel
pemalsuan
penyesalan
##ilhami
giri
##sme
##osong
##chenko
geometri
lati
mengevakuasi
sekuat
serbuan
sedan
reich
fabregas
mencontohkan
pemimpinnya
mendekam
baitul
tanjungpriok
pengungk
memperhitungkan
bour
ancol
tanyakan
perseteruan
pendengaran
ketidakmampuan
var
##hara
##angu
spot
envir
memberikannya
##plus
penyerapan
diutarakan
nia
##wid
##ehatan
menjumpai
##entaskan
gambir
garcia
cikampek
##ische
pelab
departem
andreas
cobaan
##ood
memasarkan
##angannya
agency
bey
copa
sumbu
sujud
##zig
mengabulkan
##esium
krusi
mujahidin
aburizal
sumenep
360
amarah
kestabilan
diterjang
susanto
pidat
maksiat
mengadukan
integral
menyepakati
cintai
##zine
filter
bertingkat
angkut
phd
bappenas
disertasi
sandiwara
mort
memacu
##ulo
pemula
##hantui
shock
iringan
siprus
penyerbuan
pelaporan
andil
aleksander
bd
##titi
cass
##hua
##urahkan
menjalar
chall
invest
nasibnya
kodepos
runtuhnya
rav
kraton
etis
pikirkan
##owi
permalink
keseharian
nek
ditonton
memberatkan
sahih
buddhisme
##ulistiwa
derita
##akes
pematang
terdepan
stud
commer
##arapan
pembatas
terbentang
false
aluminium
xp
adel
halte
##empit
wallahu
robinson
cristiano
dadanya
berlimpah
estr
studios
##dren
hayat
soleh
##inkannya
##obolan
sampo
musuhnya
##oriti
##ache
radius
fondasi
##bad
##ulung
##udan
sedap
grob
teknisi
cape
fiktif
##tig
pengatur
penyusun
kauk
taufi
berpengh
join
nani
##eland
bersed
##ept
hadist
kolusi
oxy
kick
##anger
biarawan
dibuatnya
650
tuna
##pesi
mendistribusikan
dires
dirut
tega
terpanjang
berjalannya
mampir
##tura
maryam
salemba
pidatonya
dm
datu
gint
##qui
##rier
age
dirusak
bull
analy
membentur
mukanya
berolah
##angsangan
bertikai
gao
##ady
ahmed
lyn
menyimak
isolasi
party
##ecehkan
ogan
pertiga
desc
gentian
bermata
diterbangkan
mangr
mempersoalkan
##tifkan
kejar
somalia
mw
penyihir
240
production
aus
##elix
##eve
agustin
radang
services
michel
trisakti
oce
##afasan
durasi
diperingati
janj
quar
bersuku
satpam
naluri
pont
konvoi
engineering
##tihad
membungk
penyam
gramedia
kronis
restu
garden
mahasiswi
liberalisme
birokrat
tintin
##uninya
pembimbing
pidie
##oliber
##kum
spp
berten
sutrisno
raymond
ditekankan
wto
menentu
##ebekan
apr
baiklah
forest
staff
ubat
##iq
memv
##endapat
european
##engarnya
haru
##intainya
miliaran
pariaman
kepemimpinannya
doni
theo
syria
fig
josh
##aidi
diren
bertambahnya
menor
tertimbun
krusial
##pedo
buron
adap
jualan
dimodifikasi
berlandaskan
##onde
percuma
julius
identitasnya
rubiaceae
franz
bada
##anta
penyuluhan
##umul
sekelas
mendik
diseng
dicintai
baling
keberl
singkatnya
mendoakan
zub
pemetaan
menyambung
##osia
sukarelawan
culture
children
hog
democr
dicantumkan
rekrut
1904
financial
nisa
##antarkan
bagikan
##ingkuh
paragu
gent
tro
suram
tkw
jangk
berpendidikan
mix
eceran
sheikh
##integrasikan
##ues
##ulut
penginj
kedatangannya
maxim
serpihan
konglomerat
digabung
adh
kebodohan
pernafasan
denny
salv
tumenggung
neoliber
pandu
arnold
brutal
hb
lac
orasi
ald
bagimu
##ize
masi
nahas
nalar
rail
kronik
lex
joan
zuh
##met
##ibarkan
perpajakan
mutakhir
pesona
yakob
traktat
kencana
ski
melu
kemel
aragon
penyempurnaan
digali
oke
737
menyakiti
membuatkan
imron
student
fauna
merauke
##akurikuler
goy
seat
##sie
sembunyi
dipadamkan
tengok
##odinam
influenza
foll
##kara
##ird
pius
entrepreneur
teritori
ensiklopedia
ls
tabu
##station
tangkis
mengomentari
perump
##eting
##andera
##atiga
itik
squ
tumpang
##etuk
##atov
tersir
##olin
melacak
pulo
##empatkan
flo
##oor
bella
dikalangan
perker
skuat
##akerjaan
nature
mori
were
##gart
disebar
manipulasi
sinode
ricardo
massachus
##hut
koma
deut
nyoman
tasawuf
##egaran
##angko
dipuji
kerasnya
lazimnya
kunt
##iac
1890
dkp
beruntun
gentianales
buntu
yonif
##ematan
willem
olivia
diikut
hyper
burhanuddin
sangka
##eron
##berger
aram
diktator
berpesan
mengukuhkan
terhadapnya
ngob
##jojo
tikar
mimbar
##orama
ornamen
##akarsai
terkaya
bermuara
##ature
hidayah
hadirnya
mekanis
rider
hungaria
cord
##yama
kuman
bayinya
pemikirannya
perundangan
kosmetik
umayyah
##py
pemogokan
haluan
ketapang
repl
parma
##uador
berkomitmen
frederick
ketenagakerjaan
hajar
hous
boyolali
bont
##ubang
dikom
##000
jkt
core
fuad
depart
mistar
##sepuh
lipi
frankfurt
jupiter
terber
facto
##won
##unyikan
##enge
ditampung
bermes
scol
jersey
mengurangkan
davis
va
##arko
##alinan
##aktek
penyehatan
sorga
ketahuan
library
merebak
kelancaran
##roskop
berwujud
##andeng
ustaz
uranium
alien
avi
gob
##ungu
parker
mahab
provok
guad
##hoi
lantang
castro
##antes
england
tipu
walk
uniknya
wonogiri
yl
##alamat
pendahulu
dirintis
hamka
pernyataannya
saif
pemohon
bantahan
ross
memintanya
alv
magh
lamban
paraguay
eun
fut
##oral
kewajibannya
bidan
##rab
diseg
ronald
##sang
menepis
mengingkari
##ovision
mendapatkannya
aar
merapat
##tisan
##zet
##onment
##iminasi
dipaksakan
punca
wednes
cimahi
##ongsong
pengoperasian
waj
suling
tunas
##sim
pengac
kesengs
bernab
tenggoro
##iii
rapuh
pengecer
wednesday
tl
##elahi
komposer
sales
tumpuan
kunjungi
berperilaku
manifestasi
pembajakan
syurga
1902
altar
dipaparkan
berdurasi
undian
1903
##jatun
dup
##sef
##plorasi
sanch
imej
mendakwa
menghuj
massachusetts
nakh
pung
diupayakan
##asp
uns
ramuan
court
##edulikan
qaeda
##utuk
adolf
lapang
##harata
olympi
trail
middles
a3
minda
##eritanya
##ener
galuh
kehadirannya
mengikutinya
##ayung
##amburan
nobunaga
guardian
tersirat
daripad
##osus
babil
menanggulangi
rajawali
santos
##change
berlian
menggeser
bale
irwan
haq
kulitnya
charlie
sragen
drop
bergambar
rate
sejenisnya
mangrove
penambang
##uge
kalij
import
elza
pangsa
lakon
bimantoro
minus
matth
perhelatan
tablet
robinho
edition
##hil
menayangkan
kemari
ideologis
lk
ananda
##ianti
##jauhan
kalium
##waringin
asih
river
aeg
baz
dedi
##ikkan
hakiki
majemuk
ditafsirkan
civil
uh
##adangkan
anyar
##ipan
terlampau
professor
arafat
ethiopia
qin
berevolusi
##taf
darahnya
orbital
pengungkapan
halmah
ditanyakan
##impung
##urutan
kalori
airways
shaf
strip
230
argo
1870
sg
diob
##hiro
##pro
multip
##aminasi
pemutusan
labuhan
##hio
firda
shad
##imir
wayan
wander
seen
menyapu
perseorangan
never
pub
menyet
bisu
tinggalnya
bantaran
suwar
klubnya
bs
tos
sekular
teologis
salman
sunyi
purwanto
rangsangan
##tc
dikabulkan
##ongkrak
##junkan
sastera
jatinegara
halmahera
mengaitkan
disembunyikan
berpangkat
cakram
kekhalif
pengkhianatan
##udung
elektrom
##bilitas
ptol
kesehatannya
letter
lingga
bengawan
bertenaga
jok
pain
##ultasi
bening
tagihan
limited
##aig
tersentuh
##istira
anjuran
illegal
##hub
##olid
chem
##tular
ekstrakurikuler
agraria
kerumunan
melintang
penyiar
sheila
environment
bernabeu
550
keroncong
fantasy
##itaran
bahari
menyempatkan
berlapis
kelompoknya
proyeksi
pertubuhan
##atunya
anggodo
##optimalkan
cant
chad
##saan
##adel
##uguhkan
tertembak
sigit
venus
memah
dianiaya
ditaklukkan
lend
##oal
ara
arb
theory
tekun
friday
berasaskan
##bulu
cile
barong
polos
berbekal
korbannya
dicap
mengkonfirmasi
susun
antibiotik
##ades
kartas
strata
##lyn
suntikan
christopher
kasi
ramb
menyutradarai
bremen
pencairan
berselisih
waluyo
nm
##elir
##umental
##udikan
210
tandasnya
otoriter
damaskus
ask
berbatov
place
mempublikasikan
endemik
umurnya
pipi
prem
##ajaan
trot
##urutkan
kanjeng
kerinci
kerukunan
suar
jalal
even
freedom
corporate
hamparan
##qin
berdebat
##cius
##azia
industrial
hindari
mukh
pengucapan
##bell
penat
##abor
parade
pensiunan
##eberkan
augus
klorida
vegas
##enna
pret
tamad
memadukan
knowledge
margaret
sesepuh
pengr
ilmunya
cind
anfield
##ontasi
patokan
##aukan
bertiga
##andan
berkip
tig
tewasnya
antib
ponpes
ruko
pranala
puan
berbaring
eu
nou
##atory
volks
mengenalkan
##lins
perutnya
gra
laksana
petak
uin
##aminan
zainuddin
penanggalan
mochtar
fuji
lus
##doria
died
perti
penampakan
artef
imba
##star
perasaannya
perumusan
prasej
mematahkan
republika
##abuh
memancarkan
mengaw
adj
keramaian
abramovich
sekejap
sui
kurnia
iqbal
basic
misalkan
##efisi
aktivitasnya
torpedo
perilisan
vagina
##cis
peruntukan
146
detektif
praset
lumba
pendakian
##egat
##egro
##andasi
thurs
katalog
golok
perumpamaan
##98
berbadan
sampingan
##engkar
division
tirta
neraca
dede
kazakh
hig
##elasi
berunding
menyisir
dipindah
hendro
version
kejiwaan
feng
mie
pekat
wer
##odok
asahan
tho
terbebas
hah
##dia
terampil
sependapat
musy
jerry
naw
menamatkan
mengudara
pembedahan
airbus
fath
meras
orasinya
##usim
pertengk
peluit
lions
ibm
nii
##sertakan
supremasi
language
majalengka
##kai
hanyut
empiris
kepandaian
disengaja
ngobrol
##osito
idealisme
sandera
ksad
prayitno
ranj
##diksi
lion
##esatan
##otop
sampdoria
##arikh
mengaktifkan
pacarnya
##oduseri
cub
terap
pemakan
melek
disp
ekuador
here
##uksikan
menampik
##tun
##dis
pemancar
##tero
also
pendorong
dina
ultr
jason
bmg
kelalaian
baks
menug
arema
silalahi
lever
seo
##uras
##odadi
alif
sisik
dilihatnya
sangk
##ged
teguran
magetan
slank
komplotan
kakao
sepupunya
##ving
##idangkan
bahasan
##oncat
mengandungi
##isihkan
imperialis
periodik
perdananya
homoseksual
menuntun
##esday
desentralisasi
suruh
kalung
##dium
eduar
##ahbiskan
dpc
kerakyatan
hepat
kung
##atem
terburu
martir
keluarkan
draft
digarap
pkl
nint
##akwah
bergi
ampl
persalinan
1800
kast
telegr
zulki
ditegakkan
mump
##ulata
afc
tumbuhnya
artefak
surau
driver
berkiprah
felix
nos
kepah
diset
##empur
menginter
razak
bili
wc
##adangan
terpa
bahri
##masalahkan
obor
haag
##umsikan
khatulistiwa
gordon
gunc
kasim
##brough
warta
butuhkan
diseluruh
sutomo
nera
##mun
##ualnya
##idia
transl
kongk
serbuk
kelestarian
siasat
##obia
kejang
kewalahan
kamerun
scolari
berkeli
elis
divestasi
1895
sekelilingnya
didaftarkan
esensial
tunjukkan
##eis
diulang
terlaris
dikeluarkannya
defini
advokat
ita
##wanto
beau
boat
erik
estetika
salaf
sanchez
aura
##idis
pemusnahan
bagir
beach
serpong
mengimpor
terfokus
olahan
menyuk
keruntuhan
perubatan
simalung
syaitan
mengins
##others
imunisasi
browser
canc
sungk
##haj
##erto
kemayoran
kerind
keburukan
omong
##ikus
##endak
ulat
ont
committe
1898
bangsanya
lalai
nicolas
langganan
wassalam
pertengkaran
simalungun
toronto
diel
menjej
##anjuk
dirg
neneknya
mengutarakan
mediterania
grobogan
pw
penanggung
##upang
kontrakan
michi
torino
playboy
find
pegang
mengincar
kard
bertengkar
deep
letjen
tataran
terpaut
##adiri
kompak
keponakannya
proletariat
pian
##itator
pengik
terjamin
warner
supp
guinea
kekhalifahan
ebook
terbaring
nafs
konsulat
##angon
##tific
bakau
dihadirkan
jew
##rence
##sit
hyang
menuruti
cig
niz
tinju
##airi
##oln
##opak
very
##ujur
tuesday
cucur
private
vincent
##bag
##vat
komuni
##iva
berjenis
poc
sita
##tius
##turn
##lands
habisan
nepotisme
pengrajin
want
##ebu
##cal
##asem
tanggap
walhi
profesionalisme
##99
menoleh
brussel
been
penggel
mec
##ematis
##olar
tuhannya
holding
skripsi
thursday
zhao
##ulatif
melulu
mencem
##sour
berkeliaran
bahrain
salon
berkecimpung
tertindas
jamak
dark
susp
pergelaran
queens
##anami
##usuran
alice
##iris
disingkirkan
ngotot
##holm
semanggi
mencurig
didunia
berpen
pencat
menghindarkan
bergenre
##embung
sehingg
menghalau
berlabuh
hidupku
barangay
nganjuk
merel
sampit
##oyd
seksama
##otret
inspeksi
vladimir
ces
siapkan
panama
bakr
jurnalisme
berkepentingan
bohemia
studinya
3d
panggil
##ailit
murka
pacaran
##akatau
wicaksono
##isin
lauk
perlembagaan
dikatakannya
johnny
miranda
rotasi
counter
##hes
totti
lanud
boys
##kusumo
claudi
beradik
takluk
german
mekanika
balan
saku
##wannya
pendarahan
1909
departement
lawatan
##oed
##imin
templ
levi
licin
##tibkan
kesengsaraan
kerinduan
##hone
##akas
reuni
##tanam
##lif
kasat
sepenuh
auto
pantang
gita
##bur
##ix
asupan
menculik
pembentuk
malino
ngurah
sukardi
pilihannya
reka
membenahi
mencurigakan
##lud
dipetik
digemari
##the
realita
firdaus
prij
bahas
askar
lemas
ayub
dialokasikan
spt
pelawak
krakatau
wasiat
##kel
memon
memaksimalkan
membanggakan
ami
##imbangkan
denominasi
##alahannya
berkelahi
margin
terdesak
gerombolan
الل
wulan
wetan
##matis
##egosiasi
menyalah
gelanggang
##untak
verbal
julian
saiful
berkesinambungan
alpha
seyog
bj
tana
dised
##eba
printer
stew
fax
mengadili
penangguhan
ihsg
telkomsel
sparta
##sau
mahupun
##tingen
##ugawa
disebelah
dpl
menta
isl
##ambakan
##oplas
##opogon
khadi
sandra
retri
##arsono
persemakmuran
fok
serahkan
dikuburkan
khus
##utani
kasusnya
diagram
penggerebekan
eyang
periksa
kesatria
uss
maq
mirror
deddy
berterusan
hey
##lid
##astri
gene
riyad
##aith
diasingkan
##olophia
dibek
mulya
emir
terserah
kualitasnya
middlesbrough
cid
talang
##larifikasi
aless
disempurnakan
##zard
muq
berkonsultasi
##titatif
##bt
menyiksa
bolshevik
cengkareng
kredibilitas
keikut
##ingnya
spesimen
##engarai
##oel
##kk
##80
kepekaan
mencurigai
thor
##angsari
terpisahkan
pedro
hidey
##enix
umpamanya
antag
alor
##undanya
antiokh
embrio
represent
##cott
##umer
apik
simbolis
1860
voice
prasejarah
##eaux
##pt
##asib
##idupan
lava
batur
gerilyawan
lug
vent
need
pembalasan
flam
komen
perkemahan
topan
menegur
uzbek
##ekw
kartanegara
dibungkus
didahului
rosson
ppi
##puasan
starter
javier
##key
##sul
##adana
##olit
topografi
membengkak
gt
##awaan
##esit
trem
kementrian
mengisyaratkan
menjerit
yel
##intus
belar
tersesat
##uality
noer
evang
categori
mih
sampe
diminum
##isasikan
yesaya
allian
instruktur
sporting
memungut
tray
didedikasikan
lincoln
gaw
pekar
bermigrasi
perbez
rss
##ogun
berkem
##eliat
simpul
oriental
kesembuhan
haki
##iwa
##craft
##apy
dikontrol
##ernas
bobby
janjinya
##pei
##aput
ariton
busur
ess
epid
gaul
meleg
berpandangan
##atural
abbasi
process
semu
agnes
pembenaran
rahsia
tirinya
selebritis
aritonang
##olon
pengarahan
##alip
keranjang
mengenaskan
##haus
##tisisme
karibia
cabaran
memperbolehkan
markasnya
philippe
tenggorokan
shen
berpolitik
lie
##umbai
fantastis
memamerkan
mendasari
hamilton
telegraph
lawas
saks
dibiayai
pakatan
1899
arkeolog
hina
station
salahuddin
petasan
jenisnya
mill
cook
grammy
marriott
dialaminya
font
kecakapan
shop
kurma
gubuk
giovan
parlementer
pengebom
mangunkusumo
##side
laden
memotivasi
kelly
##alannya
dest
##ande
meloncat
angola
ultim
guatem
##arkir
stutt
##neum
anatomi
marshall
vampir
winger
##rung
magic
km2
##ajiban
taufiq
knight
##rent
akui
army
##indukan
memberdayakan
kaliber
shot
ppn
hikmat
sachsen
##alut
kapak
penghematan
detil
merangkul
khidmat
##rahan
pens
meles
sten
##burgh
rencong
ketul
##orno
chal
bercita
kesalahannya
##andjar
taktis
these
dinosaurus
kapita
1889
mengabarkan
makar
menindas
menganiaya
ketidakpuasan
cpn
##dink
dipimpinnya
generation
nintendo
menyalahi
thaksin
melengkung
##face
##70
##emer
sersan
umm
utc
tokugawa
sutanto
widya
amazon
committee
atur
diungkap
##anjiri
stream
fire
oksidasi
resepsi
pterolophia
wenang
##tono
berang
##esus
merazia
maki
kore
upeti
akuntabilitas
imbauan
##eso
malta
small
memanjat
mengimbangi
krish
tanahabang
nominal
diantar
autom
##didayakan
eman
##semb
penyebar
menggoda
##epati
didesak
kesediaan
olimp
interest
urip
##bakar
muladi
dijerat
nyawanya
percintaan
seperempat
kawalan
kuantitatif
##arac
##angkas
berkorban
tersinggung
formalin
tekstur
##ematika
ati
trun
lift
australian
adriano
jawara
##lumi
##eless
kepulangan
indosi
##antapkan
iseng
dikti
champ
relations
jacques
permusyawar
beatles
tpa
##dikan
into
penahan
depor
rabb
merampok
sewenang
cf
mpu
##okum
tahrir
##osta
tarbiyah
##pin
##alaya
##ones
rij
litu
samosir
siksaan
sltp
stimulus
penelusuran
eden
##taan
pemutaran
dihabiskan
sabang
valid
memperkecil
screen
##obe
menggapai
dicuri
##read
menyapa
terperinci
ditransfer
tontonan
selimut
##elkan
buronan
##icks
simbolik
demokratisasi
chiang
uganda
pearl
dompet
##irukan
pemusik
dibaptis
trus
##ucikan
132
bapaknya
lennon
konkrit
udinese
wiwik
##asus
##ibus
##ovina
indosiar
##vestasi
memil
##abian
prakarsa
restorasi
##ustasi
##opat
##umikan
dilanggar
##ught
soen
patria
kpkpn
##agnetik
##karnasi
menggun
##ects
mats
##regasi
department
##ao
saudagar
hunian
##see
dianggapnya
benediktus
kemelut
giv
##eden
##antun
multin
##ganegara
arie
hebatnya
bail
ciptakan
jem
marwan
ilusi
eddie
mangkun
nicholas
method
rawatan
zalim
ansh
demang
berdakwah
brothers
##antul
eurovision
mohamed
meneri
##elka
membawahi
through
bertengger
##ucap
pink
tegar
ginandjar
emirates
menyiratkan
##essa
##oge
pesangon
pencatatan
stuttgart
hs
vihara
##emangan
sepur
soep
beradab
keyakinannya
pondasi
kerabatnya
ludwig
##isili
##acaran
hiddink
curug
arsene
permusyawaratan
ciliw
merem
sumbang
turbin
natsir
lituania
##isari
merenggut
telec
lakinya
khazanah
perbezaan
jw
alberto
irawan
muncullah
monten
lada
diinter
menghantar
dick
boom
buton
butiran
zait
prac
menyek
pendingin
ketek
joint
1897
magazine
pekarangan
ceng
pind
juanda
##izinan
akuntan
bintan
tanjungpinang
menengok
sampoerna
ciliwung
yin
##hing
alang
terlupakan
##empar
1896
bmw
tamadun
guatemala
tungku
teki
rahardi
##sudin
diasuh
biksu
wanderers
hod
menter
exxon
exchange
mengulas
disinyalir
kemaluan
pasha
tenun
jaket
fahri
joseon
kesusahan
##afal
kerajaannya
berkewajiban
governance
galaxy
pps
vila
##pahaman
prt
jua
appl
berpacaran
##astraan
pengejaran
daripadanya
voli
pemerkos
resc
lbh
mencatatkan
penyemp
perken
salatiga
satur
fisiknya
tiro
kusn
xiii
##roc
menopang
berbulan
kapel
akuisisi
scud
years
dipusatkan
yurisdiksi
jaka
siwa
1880
cakra
bijih
nang
ngan
##iken
melayangkan
urus
##acht
rma
silih
berli
##ikar
##alikannya
bersungguh
berlarut
turin
pejalan
maia
zamb
dilema
purbal
petersburg
hister
buyung
pembenahan
damar
jawi
##idato
##itari
kepun
##ists
##pora
cash
memory
##ukau
geram
mahak
obl
berger
jkt48
kov
##ekuan
menyantap
pencinta
calo
panca
ballack
glukosa
zulkifli
goth
##wick
try
mengakuisisi
bersim
bincang
menonjolkan
meresahkan
phoenix
##90
selebaran
lainya
sulut
yudha
faq
kunjungannya
imperium
kemal
penyunting
acmae
jangankan
morris
rachel
##hattan
cucurbit
jh
menenggelamkan
melukiskan
menyamai
kurungan
ikip
##thy
menyeru
xia
dikeb
menghayati
frustasi
121
3166
lamaran
tangkai
syaiful
##edai
kontainer
bish
disodorkan
stp
rossoneri
vektor
bertani
##ukuri
kanselir
cucurbitales
genteng
##run
##enerasi
##ukupan
adven
penembak
pendaki
pacitan
mempersatukan
kobaran
aulia
ranjang
##ubi
penggunanya
clas
rubrik
chaerul
balkan
karyawannya
bhay
toto
##anas
##tuti
mobilitas
puak
stanley
alaska
begoniaceae
##obak
##hout
kisahnya
sakral
##jolan
ranjau
cyc
##itarian
##embuskan
berbisnis
store
julio
##menya
sutarto
endapan
lucas
rudolf
johann
teka
justice
avatar
khadijah
dow
fusi
##35
ditahbiskan
sepeng
away
supir
dekorasi
buana
terparah
esc
julia
keagungan
bong
gani
##ilo
melamar
berkait
manhattan
pestisida
siluman
tercepat
sunat
diekspor
fikih
baya
##aden
kemew
##otomi
ditargetkan
ilyas
##malukan
##ograd
today
felipe
rekrutmen
paksaan
##obol
menggandakan
##ijak
madani
##zat
dihantam
dicalonkan
penjarahan
suratnya
walt
dra
nec
##bet
##amil
direct
ict
montenegro
waw
##onasi
##opal
biang
ekspres
ond
##andingi
kegemaran
helsin
earl
bakso
keikuts
##sica
kegan
##ebay
urung
lampiran
alfa
diklat
soew
darma
##yce
keperawatan
hanzi
charl
pemukulan
thanks
acmaeodera
condong
##amon
terlanjur
penyad
##enyapkan
ves
membuatku
tindih
ipdn
asset
aib
indera
berseberangan
mard
syafr
capit
mamuju
##untuhkan
rika
##leng
##akimi
mereng
##atua
sejuta
##oyak
kipas
pemerkosaan
dien
##ogasi
disayangkan
mansur
##chin
diringkus
helen
##struksikan
##engganu
ditindaklanjuti
terisi
agre
penyembahan
##tonik
kandas
tonggak
soccer
iw
##ikah
diblok
shell
teleg
##ucuk
jerus
duel
pagelaran
##sylvania
beranak
##cons
##zong
##inatif
##ulasikan
asuh
meul
activ
perjuangannya
penerjemahan
dau
ning
##amuan
##ential
dukungannya
mungil
##zzi
beralamat
##aini
menggiring
##imbunan
wiraj
feed
customer
menugaskan
lopa
##lal
ambul
##bao
fisikawan
why
##bra
##cy
##aser
##inois
lux
omzet
tumpah
mnc
rya
pengund
##ingkuhan
gregori
menggantungkan
categories
rescue
nem
rust
##wangi
##hab
memikul
unh
diben
hatimu
redaktur
memperbanyak
mengatasinya
jed
wai
materialisme
dpw
playstation
manifes
matthew
spring
theat
##entuhan
supers
madagas
kekerabatan
ericaceae
zid
##joh
##otkan
ditun
menerusi
dihidup
error
communication
crouch
sweeping
ocean
melirik
kerd
etan
qad
tae
##usep
karma
polimer
kharis
mesopot
roro
kualit
motiv
mimp
pertan
##apitul
pundak
diantisipasi
gayo
diutamakan
diedarkan
bip
##fitri
##ares
adams
stak
berposisi
berpidato
situlah
epik
cepu
nerazz
cgi
daj
selektif
disumbangkan
grace
##table
sanitasi
zaid
##tes
##rem
##irikannya
kalsel
bernegosiasi
lawrence
presidium
hipertensi
##zak
peni
semar
sederajat
disertakan
penyayang
##grade
sabarno
saturday
mumbai
##ayangi
bersaksi
digantung
rasmi
lucy
diharamkan
##fare
beramai
##upnya
sulastri
##ucut
coup
pemulangan
rutan
##zens
mengampuni
penyebutan
child
carolina
silik
soh
tere
##bui
##abung
##house
mengarang
kepanikan
julie
morgan
menyusut
cempaka
kaj
kind
##iat
perry
melesat
kamen
##emplar
mint
sekularis
ketenaran
menyadarkan
cpns
nana
eparki
kegelis
kei
menjualnya
##erial
menghal
##ocol
psv
kidung
ludes
jerusalem
850
pemus
ende
surin
5000
yasin
article
purbalingga
mina
menitik
kematangan
##endek
korintus
terpelajar
roch
kesalahpahaman
kemewahan
##uluskan
##olek
tuber
sahara
##untuan
persil
tante
kodrat
terwujudnya
wiki
##opl
kamarnya
##lier
ramon
keganasan
bw
terjer
maros
khayalan
destinasi
dl
dob
##uty
##bery
pergolakan
hilal
usahakan
memblokir
disegani
lith
megal
##ml
##vas
barn
buck
babakan
azhari
walker
tepian
pennsylvania
trayek
wirajuda
perangkap
pendataan
grow
misinya
liberalisasi
mhz
lod
inul
kanaan
menjelajahi
##dim
##yer
perencana
dikasih
berben
bersambung
katalis
drain
kilo
sirih
talenta
##ography
raih
ratio
xxx
##uez
##adt
oral
anglikan
thi
militernya
singkong
##omyia
kepunahan
sepengetahuan
cint
ej
jian
paya
##janya
perombakan
anis
##ihi
diperparah
didepan
dicoba
kabin
piatu
dahul
glenn
helsinki
dadah
##inju
arbit
polio
babad
ketajaman
##down
ganjil
multinasional
zaitun
mamp
##erv
bebatuan
dibangkitkan
fluk
mesopotamia
mengemuka
paduka
perhutani
munich
menembakkan
##town
hull
muas
##ament
kotawaringin
magang
bonjol
riyadh
bc
jump
mlm
kelola
kontan
tsar
muzik
saudaraku
ront
##enzo
##ekik
oricon
salak
##stone
pembangunannya
perkereta
##okumentasikan
fle
##akon
adonan
kepiting
petisi
##ologinya
jelaslah
rachmat
kaji
neh
kalteng
tergesa
##evich
oct
##efleksikan
follow
rsu
tunt
dipekerjakan
##ungkung
ground
hiroshima
fiqih
ernest
munafik
vend
inspir
kosakata
dihadang
mengagumi
pailit
aksel
serah
##anjal
ditakuti
proteksi
pahami
feodal
probl
pustakawan
berpat
tiger
digit
antiter
franklin
gandhi
keluh
##ofon
subject
beir
antarm
320
icw
bart
intellig
##zaliman
ikhwanul
##gala
chev
kumuh
mudahnya
micro
diserbu
five
##akr
mengoleksi
merid
meledakkan
rasuah
mikroskop
hegemoni
raid
##uslim
pemerhati
destr
##intaannya
comedy
menginformasikan
background
owner
ble
##eko
kebal
##anca
syed
industry
franco
bordeaux
toro
##ernya
seker
trust
eksemplar
bergetar
path
bird
daunnya
zaenal
##asaki
pendopo
berko
berseb
matinya
komputasi
kenabian
syuro
rahang
phone
aspal
pablo
ppk
ihza
##aktekkan
##kov
##aps
memantapkan
kemiringan
suam
milenium
liputan6
pecahnya
teoretis
dibebankan
bahar
banjarn
meninggalkannya
##jiang
##atsu
spa
loket
fasilitator
chavez
sardinia
##kali
merambat
##atannya
angsur
##itary
##tivo
kiev
pdf
future
gumelar
stockholm
hua
adebay
isotop
dikenang
##osida
ibid
sinemat
##asso
##imental
spam
keseri
kadin
##efon
menariknya
##alsukan
bram
122
ibrahimovic
steel
frame
##jelas
##alke
##asut
philos
##dowoso
##euk
senam
##ece
##terior
yamaha
buas
ez
goyang
peker
qud
inipun
pramb
##diq
##ansyah
##ucon
menyelam
radioaktif
supermarket
rscm
ucapnya
kurniawan
##apitulasi
rew
kepatuhan
bondowoso
gy
vil
##omata
menyisihkan
bromo
menggandeng
pencucian
mycetophila
tertanam
kesra
perseb
dharm
fib
nadi
berkuda
##afiliasi
prostitusi
blang
ronggo
berkeyakinan
berinvestasi
kazakhstan
tala
##wulan
##usian
membeberkan
berbaris
mulyana
badung
sciences
access
konfrontasi
galat
zikir
##lip
##yangi
mengko
##endong
sekujur
perempatan
campbell
hambali
diabadikan
adebayor
pv
##apaan
kho
being
270
retor
konsekuensinya
##adji
manan
chun
lippo
menganalisa
pembuatannya
pebisnis
##unangan
mash
brain
deposito
##aisme
idealnya
panser
pembalakan
psiki
electric
##gapan
##anduan
dirumah
1886
##view
##yeong
orkestra
##rok
##rof
330
drummer
berlipat
bast
terengganu
##agum
##anggah
sedalam
lokakarya
rusli
baek
devils
kesederhan
##armon
bagan
ambar
kesana
asim
##silakan
sov
six
ward
edukasi
kualitatif
jpu
##tki
kepen
menghabisi
greg
laksono
wam
keatas
##orp
##iha
petikan
simat
note
cet
osis
sukacita
rashid
siro
##atarbelak
penentang
pertunjukkan
depo
yudisial
diingatkan
hafiz
draf
##hya
kesaktian
maradona
##ajarnya
heid
kosovo
dipertanggungjawabkan
atlantis
ditelusuri
purbakala
##atung
dipentaskan
pesakit
battle
bermasyarakat
bawahannya
##lob
##aika
##iger
1888
lowongan
cnn
bingkai
beirut
banjarnegara
bimbang
verd
##tara
##umus
soeb
musl
##warsa
sapu
lapan
##eleng
sumbernya
memproklam
pemandian
rangers
chinese
zero
berbahagia
dipesan
encyc
prototipe
membalikkan
bermesin
bahasanya
chand
laura
upayanya
azab
longs
##eportasi
memuja
kav
oth
saras
garda
cekungan
mengharamkan
dham
less
##baya
##erra
##atha
judulnya
induknya
lehernya
hampa
dogma
rim
bernapas
saturn
nio
rush
wujudnya
mensyaratkan
dipecahkan
orientalis
mengijinkan
promo
chung
calder
##ppi
leonardo
dikepalai
sanjaya
perkeretaapian
melodi
karun
##isikan
kebuntuan
operasinya
kromosom
slowakia
dirgantara
michigan
fikir
pneum
sulfat
budayawan
rutinitas
merangkak
pijat
##andangkan
pahang
komentator
mengembang
oranye
terdeteksi
busway
antioksi
1885
tanj
##zai
alt
dilimpahkan
##estasikan
jauhnya
iphone
diperolehnya
mengejek
djalil
babilonia
##nd
##uer
##ukaan
umi
##illus
hercul
widi
berkelompok
msc
ottoman
##dun
##fb
mengajari
harapannya
atmos
fizikal
##rana
##obots
ceritakan
panorama
1894
beraliran
terarah
memandu
keharmon
bandrol
magis
disembuhkan
##zza
mengaji
##egovina
kepel
gates
musyrik
bolak
##epuk
sumba
gerobak
clath
konsistensi
cliff
dja
dora
##edahkan
massi
##ogne
berduka
abubakar
mesias
sugeng
##eskrim
bok
##adil
anang
didanai
catherine
prime
##phia
naq
pertiwi
##ampuran
graham
komponis
penjaringan
password
menggaet
lumbung
##inakkan
syaf
canada
kombes
mcclaren
agustinus
##uplai
##acaukan
##laq
provokasi
##eksinya
menyayangi
ketidakse
platinum
agreement
menyamb
##otok
ester
tidurnya
bersebelahan
xan
##turi
anum
kecanduan
pemerasan
okin
watt
samsung
pelancong
cum
mentor
##ustik
tempor
labu
##asiswaan
semboyan
simanj
ramayana
menghidupi
mercedes
kesepian
sambutannya
giovanni
ditir
##elaah
225
pilihanraya
recovery
alumnus
lonceng
gonzalez
rangkap
menjarah
emil
##esty
bermoral
citizens
timbalan
cbs
##osankan
systems
hartanya
bertumpu
##donald
##yamin
##33
komet
direvisi
binjai
260
hercules
##ekasan
ketebalan
mestilah
bertaraf
##encaharian
gregor
pajajaran
persebaya
mungk
celcius
hizbut
fish
##dh
##adani
##oton
mencic
diperjuangkan
bersik
elektro
direkomendasikan
kemahasiswaan
##tawai
jumpai
sami
perizinan
kemurnian
boul
traffic
menggigit
berolahraga
fbi
position
tuhanmu
menguras
asyur
piringan
dynam
terhindarkan
ohio
where
pemes
mason
akankah
membosankan
belang
negri
dikira
abah
diterangkan
ulil
digagalkan
supran
russell
kreditor
lumrah
1883
##uryeo
aditya
resources
sajian
vakum
kemerahan
dipungkiri
##aksinasi
dijemput
tercapainya
nubuat
##ikhl
karam
kelam
miguel
memanggilnya
bersetuju
gibral
tung
wati
##naker
pelarut
ketepatan
brit
empu
kiemas
saputra
diposting
lomp
peron
##andaran
##alion
##standing
mencermati
melingkar
explorer
simanjuntak
selembar
desanya
kekayaannya
peziarah
memberhentikan
buch
infota
reseptor
johannesburg
##ος
menanjak
##ission
##gie
morning
bercanda
sandy
renault
kegelisahan
gesa
##folio
ditukar
sendok
taruhan
##strong
kesusastraan
diimpor
hijriah
stakeh
##araannya
##endahan
mengenyam
valley
kayaknya
cagli
keabs
bolog
dikandung
kelopak
pembangun
dideritanya
berlangg
terpukul
terpuji
sadari
tersedianya
hank
antologi
kecap
kesesatan
marina
elok
##timura
robben
religion
illinois
ryami
leader
##lanan
diungg
indy
takbir
tanker
sou
##ompokan
sembarang
##namakan
sandal
usahawan
dirampas
paguy
bersikukuh
case
fasih
##zir
##awin
##ibusinya
diproduseri
craig
look
herzegovina
gibraltar
gai
terat
##ayamkan
membendung
kompat
##ujan
terdiam
didirikannya
##likasinya
terbuang
sengsara
mengantre
goguryeo
bowo
trump
rejek
##uguran
gerindra
##elabui
beth
menawar
peribad
heboh
kaligrafi
daim
##eur
##cong
danang
berurutan
meramalkan
##ayo
seharian
shogun
sosialnya
##ected
etanol
lik
##eline
##orupsi
##rif
ditengarai
lav
motors
1884
##lorca
kesepahaman
fasisme
vibiz
mengekalkan
mla
##ease
##sons
##ال
##aland
##umput
mallorca
berjama
sabit
tomas
##owski
spektak
antioksidan
tandingan
##leh
akomodasi
membi
beladiri
harahap
spasi
polar
senegal
##ories
transjakarta
##okrat
osama
anthrax
menginspirasi
##idz
##etr
rusaknya
normatif
francois
##operatif
##oteknologi
infotain
##eren
##terdam
cool
kulihat
giusep
nathan
galanya
tersendat
kesimpulannya
ie
pendemo
kebolehan
##onsentrasi
pemilikan
aries
mengeksekusi
nitrat
suriname
##esen
jalani
iron
kolektor
trich
neville
coc
tentukan
tjah
beril
##ohor
thr
kebagian
1830
kado
mengkon
phyt
sambal
cambuk
debitor
korporat
maghrib
vall
yanti
##iy
##apah
bulannya
sepeninggal
difahami
ihsan
menumpas
haryono
surplus
kurdi
terpelihara
##ewasaan
direalisasikan
ryamizard
gama
##banya
terror
##opong
setebal
turn
brook
francesco
snow
menipis
##asmita
pug
##antasi
##unggul
berjiwa
dibukukan
1871
kelembaban
dipadati
kiss
zu
##mil
mengoptimalkan
sosio
silla
kewira
tafsiran
teddy
##ragiri
fach
##imeter
mendasarkan
keseluruhannya
merkuri
kesebelasan
meramaikan
aren
bersubsidi
telev
telpon
fore
fermentasi
holland
kodok
philipp
mantel
safari
hideyoshi
mangkat
sbs
##emarnya
mereda
penyokong
korem
##undupkan
mengakomodasi
moderator
menebus
dikomp
tektonik
capek
kupon
antonius
wesley
leadership
hubungi
bernafas
publishing
pratama
lian
wemb
merevisi
belu
tanz
dired
summer
suryo
deplu
satupun
trig
dorod
cloud
memperdalam
##news
##abo
##aine
abk
whe
gaun
psikis
optimisme
shalih
terapung
hes
yokoh
angga
atlas
##eyan
albumnya
penulisnya
280
tgl
##erap
##utron
##ongsi
keledai
kedapatan
bentukan
perdarahan
235
bollywood
kodim
cakraw
own
maulid
giuseppe
bg
##gaf
##uhinya
mencurahkan
erosi
torym
##stream
##loskan
menyedot
jebakan
codex
##atarbelakangi
tami
membukukan
menabung
##osongkan
##ekarkan
##antaraan
##atip
mendanai
warnet
marqu
mother
reformis
hepatitis
yokohama
lif
fungsionaris
hilton
panjaitan
aven
##iburkan
bersarang
##kuasa
afri
piero
extra
ditulisnya
pamekasan
dilapisi
latif
##rr
keresahan
gergaji
tersangkut
diperkosa
kesedaran
##itahukan
amfibi
cumi
nbc
rita
parf
terbelah
terdorong
swift
lelucon
##arengi
longsoran
cultural
merajal
##ications
golput
terorganisir
##ahulukan
hti
juh
punj
##king
##illo
terik
ditanami
ibuku
nonaktif
espanyol
enterprise
cagliari
capai
uch
segel
tergugat
pattimura
photo
buletin
##jatai
djo
eis
mengemas
disponsori
sahur
linear
hajat
ditawan
##ektorat
sukhoi
perjamuan
mukim
philadel
tabiat
bertabrakan
yellow
adab
meringkus
warganegara
sepele
perlintasan
ajak
latvia
schalke
pascap
terselesaikan
disemayamkan
direnovasi
stewart
okinawa
geb
gentar
lir
memaks
##osc
##eksitas
masjidil
tembus
dikejutkan
dort
siau
menendang
kemuk
terluar
##ijat
boss
bunganya
penetrasi
geta
##sol
pengiring
engels
##velt
ricky
hant
woo
diemb
kemeros
dikuc
berkend
seny
panicum
paparnya
kakap
bilbao
citar
cuman
ketik
ijtihad
rotterdam
critics
mans
longgar
vertebr
importir
meriwayatkan
theatre
dorodjatun
bla
sina
##yd
penik
dipercepat
mys
##agoza
blokade
alfonso
eto
limp
##apol
##utik
pemros
return
chlor
terdampar
tabanan
contac
schwar
jelata
pendiriannya
##odinamika
keroh
##torsi
sayid
elektromagnetik
madagaskar
face
##lun
aka
dibarengi
rektorat
cun
##irilah
indragiri
eku
kabilah
lippi
kpi
deret
firma
lesbian
kuncinya
melunasi
zaragoza
mengkoordin
kewirausahaan
mengay
penata
untukmu
##aboh
##andarkan
barbar
russia
##awarman
skuadron
diind
seven
beradu
inap
##epare
soo
buwono
postingan
kreatifitas
lemparan
##tipkan
ngab
##ader
##usiran
##dong
##hus
films
##ompak
diganjar
monaco
memanipulasi
##itzer
oliver
dipulihkan
cawang
joa
mba
##hog
semem
##intil
mulyadi
langkahnya
psm
dibentuknya
mendesain
##budaya
nirk
merenung
blood
ernst
sesampainya
desktop
sekularisme
db
mira
nist
##ushu
memar
negarawan
tengahnya
kolese
sinai
muat
sesebuah
mengabdikan
kontrasepsi
dajjal
menimba
##odong
dilandasi
iming
tepuk
living
sharon
diaplikasikan
alexandria
##orok
##odai
agro
impresi
sistemik
fakir
kooperatif
##head
furni
melangsungkan
meluruskan
kesek
tenter
extr
khasnya
kronologi
dihidupkan
bologna
wembley
materialis
diskriminatif
memusuhi
roth
##rina
##uatkan
orba
kepindahan
siv
sukai
##jaja
beramal
##budi
##eps
penghuninya
kpp
banu
##ikhlasan
##ikasinya
##emens
##azir
tertipu
cij
rul
##eger
alot
##osen
##inggirkan
khasiat
jamsos
kopenhagen
gianyar
treat
seattle
aaron
uzbekistan
kemerosotan
bitung
ndak
inpres
##osaan
mani
thril
mesum
buruan
sutjipto
deteksi
seperangkat
present
kartika
teoritis
ritel
mengarungi
kelelawar
##redit
terigu
##usman
dicopot
##senjatai
qui
ditum
mendengarnya
chr
bermatap
leeds
ampel
konstituen
bermusuhan
afi
masker
diraja
sukam
##tega
memulakan
product
bersentuhan
aba
emma
1200
##euen
perselingkuhan
baf
gps
zahir
##khu
##yod
risman
jahe
ganjaran
observatorium
antiteror
##garan
##odia
mencetuskan
berkobar
menempat
mengklarifikasi
hendarman
terbatasnya
prestasinya
godaan
membelinya
konstantinus
doctor
mufti
simatupang
calderon
eni
rina
##tha
mentawai
alves
burn
majene
nascar
pergelangan
menyusup
bhp
celtic
keberhasil
diimplementasikan
menggugah
figh
lont
diangg
merindukan
##anggalan
banking
register
mika
rri
##zaman
persepak
##utsu
alc
alber
mendongkrak
setibanya
paguyuban
kentu
lawang
istrik
ditelan
berpikiran
finis
jazirah
meulaboh
eq
##hr
##enden
pelip
pemboman
pemerataan
##room
habsburg
cluster
gmail
rolling
karnaval
jai
##ostr
abn
##undan
##ocus
millen
kadal
pdam
rhoma
princip
bermatapencaharian
##yong
terangkat
keser
sukma
1850
menerpa
piet
betah
ito
mia
##gow
##yawan
berziarah
penyisi
seringnya
ngeb
perbedaannya
bibi
hehehe
alessandro
##trech
shef
##aristi
##cium
##imbas
revitalisasi
terhalang
shel
herry
schw
1881
cakrawala
jamsostek
jaj
##tina
siberia
swas
samaran
occ
mengatasnamakan
mok
rip
terencana
##itera
##otin
statis
jaktim
megat
ozon
bertrans
pengulangan
##lahatan
##alist
supern
left
ipar
gory
bersepeda
tergelincir
ranking
superior
deportivo
fuku
sne
keikhlasan
penimbunan
##ualaikum
##endaharaan
alfabet
cola
##tl
##rap
anelka
gerakannya
ketut
sewajarnya
merenungkan
menyalahgunakan
dop
horn
mencampur
pltn
atp
solusinya
muna
hyun
dus
gui
jae
##hail
ekaristi
sehabis
shaw
elektronika
menyesali
menghirup
tow
dikubur
true
berdom
epistem
costa
dilemparkan
mitsub
yazid
bhayangkara
dahulunya
fard
ruth
##bih
oli
##ritisi
theater
emmy
binaan
bireuen
kompleksitas
curang
sekeluarga
##organik
kesederhanaan
spektakuler
##rail
mengambang
pemaksaan
##odon
membusuk
dipercayakan
##este
sesuatunya
dicanangkan
##roit
neutron
##unaedi
intimidasi
##efisien
amplop
gnu
yoh
peranti
penobatan
menjaring
bisakah
puteranya
##phy
1892
bertutur
seantero
yakobus
istriku
gant
zel
perlukan
pinjam
dituju
credit
terselubung
magnetik
penumpukan
ditemb
theys
pabean
dermawan
glenea
guncangan
##fin
##antha
dikontrak
sich
##ejad
nay
##fungsi
meremb
menyoal
disuarakan
salomo
pinyin
praktiknya
mujizat
senopati
aun
aurat
##bai
##uv
siena
kaumnya
ayahanda
della
kandangnya
lutheran
##oon
##cp
berkutat
penggemarnya
zhong
cengkeh
feminis
masyumi
kumpul
##ubris
##anjing
dilip
kedik
slot
jenazahnya
##fried
kriminalitas
dortmund
##rac
parsial
berlubang
hammers
pakaiannya
kalijaga
gut
sima
##minan
##ان
memotret
##antunkan
makbul
madjid
hayatnya
chamber
reda
kepe
dipungut
bidangnya
roose
disewa
ekstrak
ridho
generator
investment
zidane
antarmuka
pemesanan
kontributor
lahat
1891
ridha
nano
berinisiatif
biayanya
penguat
skb
represif
karakternya
bercorak
beriklim
memahaminya
sihat
menamai
pengusiran
dave
inst
penggelapan
mengalokasikan
340
tape
perkenalan
cp
##oz
##ound
haryanto
dibawanya
lionel
novi
terharu
curam
tebusan
terbitnya
anumerta
spesialisasi
ribery
##istic
days
freemas
gregorius
##ajaknya
chile
digagas
paolo
pembantunya
jessica
loyal
hakekatnya
terbarunya
jingga
ufo
##nak
##cript
adopsi
pakta
gelaran
##assin
##harma
menguap
penuturan
mengartikan
xanana
##oes
##aah
memuliakan
suryani
ile
medic
solomon
stage
diamalkan
catan
np
##rov
aldi
##itain
##isipl
dear
nyala
kemerdekaannya
##pelasi
deri
oman
slavia
##eer
##udo
##udar
komering
daulah
kepentingannya
panggang
indische
menghisap
kadis
evans
mengubahnya
tirai
ghaib
mangkuk
wallace
##zona
##ility
##ussia
amati
bergemb
mengering
punggungnya
affair
ahlul
sememangnya
hern
menanc
price
trading
rekanan
electronic
lost
zone
##vers
diurus
berafiliasi
##upayaan
marvel
tentaranya
berdalih
terguling
##ardja
bomber
competi
difungsikan
penjelasannya
clathria
ledak
##otif
##tam
tertuju
pujangga
##okarbon
membebani
gini
##inasakan
osman
kualiti
berinisial
mitsubishi
kolong
rosa
##tuan
##tualisasi
kelabu
##embatani
bisri
mencekam
charac
resesi
determin
sophia
##ahar
align
menyengat
didier
kapsul
bef
kongregasi
mitch
araneus
hep
pelik
chol
dahi
yosef
mengalirkan
substansial
xiv
##more
##adung
##esch
kontingen
kembangkan
motion
dicermati
dideskripsikan
duh
teruk
adha
still
mistis
ciuman
royalti
thriller
sani
kezaliman
##tase
marty
diperbaharui
rig
turbo
skt
metoda
touch
hentinya
roosevelt
bongkar
orn
aria
direbus
requir
enteng
##lamy
holmes
##ografinya
didaerah
parfum
keberhasilannya
reks
##oikot
mengelabui
kempen
##oder
##aluwarsa
dapati
pell
fren
menjawabnya
tiruan
rentetan
##lub
##isyen
melewatkan
karantina
##ogol
sejawat
setim
bruto
jeremy
brosur
dikebumikan
berlangganan
lupakan
terukur
belerang
manok
##ches
efesus
diversi
anarkisme
mengimplementasikan
##casting
keseriusan
rejeki
gendang
pendistribusi
matriks
gawangnya
ditiru
tac
dikukuhkan
##fatul
tdl
dipenjarakan
kimiawi
merobohkan
diobati
ambulans
philadelphia
nirkabel
##erob
##alli
pelukan
kedu
nurch
cru
menginstruksikan
europe
vip
##alayan
205
berbintang
shakes
dicont
##thia
eselon
would
heroin
lekas
##iputera
antibodi
hond
##elahkan
karat
kuantan
interpelasi
rahayu
hipn
pengusutan
menghanguskan
dahan
##come
taks
diperbarui
baud
santunan
miniatur
hmm
##sien
meringk
stm
##iver
buatannya
menyedari
polly
otentik
mengkhianati
bumiputera
zheng
naif
seenaknya
roc
##leb
##cer
##buj
taipei
penalaran
jg
##tangga
##adron
##tage
tidakkah
matian
improv
ubur
kuartal
ttg
bhikkhu
twin
##onda
barangan
penyumbang
kebat
sepintas
maw
##mata
##pak
##aiyah
gregory
perkosaan
jerami
come
bercinta
salafi
friends
loyalitas
hoff
m2
rangga
woman
##masikan
suff
teach
kelasnya
penerusnya
crisis
kriya
dengue
justin
assalamu
mahabharata
freemason
iuran
nuri
##88
praha
##adion
##edian
dipinjam
telefon
dicetuskan
duren
europa
wiras
rwanda
fundamentalis
##adanan
##buwana
##oleran
britain
terkalahkan
expo
quo
published
##mos
selular
parepare
1848
kejanggalan
betapapun
bercocok
hibrida
sadikin
##aaaa
sibol
dikepung
##pesies
salvador
##arita
melecehkan
##endakan
meiji
panutan
donggala
klausul
merepresentasikan
dt
##pos
##wakan
juz
indom
bism
kate
forbes
kebutuhannya
##iduk
##asius
aryo
seto
berjatuhan
bals
leiden
raff
without
##arth
##atti
thom
multil
kurator
corrup
1864
bernaung
pelacuran
basilika
bisik
##eming
menafikan
sebagi
poll
##obrak
umbi
jenayah
##ondis
##amato
##elling
ucapannya
mukhtar
dd
##ampton
konyol
sepuh
##ganisasi
siswanya
katup
strong
partisipan
gema
ice
pembekuan
memprioritaskan
perbendaharaan
relokasi
1893
kemaslahatan
teorinya
nakhoda
meneriakkan
fh
soto
tungk
##iten
siswono
emmanuel
telp
1873
wamena
jeli
##kp
##oning
mengindahkan
##abl
diboyong
menerbangkan
ayy
physic
clim
niss
rada
mengubur
##ingkap
##oyeksikan
luw
memperkosa
untunglah
pengeboran
fosfor
bersedih
dodi
##ensia
gray
dijajah
mengelakkan
stadio
terminologi
021
cuplikan
rizki
dais
diferensi
##inejad
penentangan
awas
meeting
ketimpangan
gamblang
##self
maafkan
##ability
hierarki
behav
mono
ns
sorong
##ijauan
benarnya
stagn
ciptaannya
mohammed
politics
lake
giggs
pengacaranya
charlton
cort
fast
oki
##nar
##fica
##alla
##ieq
kesebelas
rodriguez
krishna
manokwari
eus
isak
berbondong
ushul
terpilihnya
pancaran
quad
estate
gigitan
##uffle
buffon
hacker
alj
karta
remeh
corp
curian
lempengan
shakespe
prep
sij
kesah
ibundanya
mirza
getafe
lili
rn
##enes
berguru
mount
rokan
edaran
strategic
mengemudi
gs
hormati
kepunya
dises
sholeh
iy
##long
mengac
prota
disembah
sweet
denis
help
pph
pyth
kik
moto
pni
##wandi
darius
bermusik
penggemb
##ticons
1878
bppt
bloom
sabat
yamin
diik
baker
revolution
tambunan
firef
##taceae
##uder
##emprot
##ortun
##ther
denyut
##omunikasikan
auditor
zurich
histeris
jeddah
foreign
sheffield
bilah
sbi
##gai
merefleksikan
##angkung
disebutnya
kebugaran
##achman
aliyah
1879
rizieq
powell
against
lps
##ulf
##cheng
##dens
ids
ajal
vista
mensosialisasikan
siantar
kuj
##yutan
##fil
sepulang
perkakas
telugu
##ijk
reptil
rahib
1882
peribadatan
ting
##aq
##aken
terapan
##eban
disy
polin
krimea
keaslian
heavy
dkpbb
berdomisili
bongk
jengg
sagu
##maker
berarg
penyertaan
dimekarkan
petrol
tambahkan
tatar
consul
stereo
coh
curi
hegel
lha
luang
##astra
melast
kardi
alamnya
omni
christmas
zimb
isk
dist
dibolehkan
stor
muhaj
cardi
penyuapan
persilangan
akurasi
agent
bersil
arahnya
##mbol
sutera
keikutsertaan
pengundian
merajalela
kj
nisan
##uam
anglo
stade
demografi
leop
koja
schum
puerto
vision
analogi
memblokade
cres
##uno
komodo
terjawab
sumar
menertibkan
prosa
afsel
menemukannya
motto
##ilmkan
mencampuri
kashmir
quality
##atri
patogen
penyakitnya
kewujudan
##ophora
##raan
##pas
menasih
kejauhan
##ulum
sekarat
katek
rups
pabrikan
keterlibatannya
legiun
cindy
eup
lc
##zia
mertuanya
##edu
pengairan
manhaj
keshog
##aksis
mediasi
pusatnya
mengkhususkan
sustain
pengkhianat
replika
pertanahan
mebel
sekecil
chong
kenari
pencitraan
tangani
penggugat
bantal
hello
steril
clean
editorial
dipanen
keshogunan
menhan
##apur
kebobolan
penghay
golnya
mengeksploitasi
berkahwin
periklanan
##apraja
##omataceae
psis
rrc
##imoto
melawat
##opy
suyono
chik
usang
plant
moda
pengharapan
dianugerahkan
autis
bertiup
s2
##worth
##jet
bahtera
khatib
##elius
salut
armstrong
##nesti
berwajah
jagad
claudio
abbasiyah
larang
##abelas
##andak
menjajah
kerta
##nav
mengkons
##nett
magnesium
jahiliyah
algoritme
sulis
dananya
prest
akustik
artem
##mania
depkes
##tivisme
penghidupan
##elaar
##ontonkan
definitif
risk
wur
yag
meruntuhkan
belawan
dipo
mood
lept
mengucurkan
melastomataceae
lontar
sz
diijinkan
menghantui
terbabit
##nisa
pion
syawal
menganggur
laporannya
tergeletak
pelaburan
edin
##elro
##apto
semang
bersin
direp
otaknya
menuangkan
rajasa
rao
pensil
bruno
please
candra
eram
fatih
##alina
diuntungkan
karate
dipukuli
ahmadinejad
quick
legislasi
##cow
##ompakan
tergambar
injury
karaoke
bondong
jagoan
gomez
ato
fn
mengibarkan
aki
membikin
dikombinasikan
ditangan
kapalnya
1600
##ween
franch
bungkusan
gajinya
guj
saji
##amang
##emai
##onna
penuntutan
##ogoh
barus
tromb
kasur
deco
commerce
##ondisemen
shakespeare
faith
sinta
terekam
##ariannya
##nyawa
##imon
praw
##indag
kesesuaian
bagiannya
##arahi
cabe
teheran
address
gegana
##pot
selaput
dibekali
ellie
ulum
miko
nerazzurri
gengg
menjerat
stoke
kekun
brt
intens
pemulung
subspesies
spiral
fisher
##ulap
mengacaukan
tahl
belenggu
diperm
defoe
miami
detroit
cannes
gundul
kanji
##tung
##eknya
sial
terbelakang
memberkati
ding
teen
andika
##eksasi
bav
gos
aduk
arondisemen
angsa
##evic
mikhail
reality
citanya
dipecah
brahmana
##opatra
mug
noda
ouw
##estu
pasai
leip
nistelro
disentuh
amnesti
setakat
pembangk
terlempar
berlambang
lapak
petra
otopsi
pkr
miya
taqwa
badawi
diliputi
gerah
##oru
menjulang
##anggai
##anjiran
suta
moun
pier
teratai
menempatkannya
arom
mendata
ummah
malin
131
##utuh
##reditasi
marcos
broadcasting
experi
resistensi
dot
##gang
##tuasi
unil
premis
majoriti
papirus
##fahaman
memperlambat
banna
associated
mencairkan
nistelrooy
nc
stem
##adab
##ollis
##eten
##iaan
##ible
sigi
bourg
pegulat
mengenalnya
beca
##tipula
mengasuh
choice
antagonis
tuntunan
flight
anand
penang
dikhususkan
moncong
dosanya
##kusen
sofia
martapura
fia
##ending
##angkum
berhamburan
matematis
bergilir
mewaspadai
current
kompeten
mengeksplorasi
latief
jos
then
musiman
kurung
rekapitulasi
edgar
hendrik
##organisme
nancy
##dm
##enberger
##ihin
thn
##utihan
drag
afd
holoca
##rawati
mdpl
pelataran
trotsky
berkoalisi
##36
menebar
mensy
menumbangkan
kebanjiran
diprakarsai
curhat
1887
berdiameter
antikorupsi
chaplin
mengungguli
district
leverkusen
kerohanian
mum
pali
taz
vaksinasi
weda
yamato
##itnah
teling
kenalan
gelembung
##roll
aqsa
kbs
prasetyo
pemrosesan
kender
msi
##emur
##uts
melenyapkan
insulin
swalayan
botani
sinkron
##istri
ardan
diket
dibagian
novelis
##istry
380
infotainment
werd
yar
##ehr
orange
graph
mempedulikan
sulf
forward
##warts
##umbat
gesekan
membasmi
aleksandria
tunan
##elen
chak
emerg
##ucu
##untingan
pedangnya
bolaang
radik
statement
imperial
bilion
##fs
##ulam
sebaran
asc
teungku
swat
ngr
##othy
kondang
diarsi
rico
menyej
suyanto
rumi
abim
digunakannya
obrol
digoreng
bekalan
reduksi
youth
##cky
##ulloh
dikeringkan
acheh
kronologis
##elajarinya
holocaust
cb
lusa
##esitas
##embara
kamil
khitan
lokalisasi
kewasp
faedah
atasannya
bersepakat
dou
pimpin
mening
asem
terjepit
muluk
##ompa
##taian
##erano
pix
##mene
galian
##dianto
utsmani
الله
antiokhia
bunt
merinci
melelahkan
##oten
barbara
penyitaan
ent
syl
subianto
opm
munchen
fosfat
randy
stephan
##akusuma
arbitr
ld
xian
##rh
##kt
terjaring
airport
diterjunkan
dibuatkan
konstanta
kediktator
langs
nice
zag
sekemb
##ankton
kebijakannya
turunkan
tenggat
mendukungnya
florence
mengasah
mengedarkan
wirausaha
ketekunan
syafruddin
kepegaw
kewaspadaan
eag
mv
##tub
##idih
##antho
membekuk
diperebutkan
sudarsono
holy
aviv
merepotkan
epidemi
phytomyza
##bana
##jaran
##ites
pengasih
##acle
buyat
syirik
pengetahuannya
pecandu
nike
outsour
aisha
mengembara
dioperasi
##ondow
intra
memukau
##abur
olig
pasaman
trenggal
##encer
kuatir
cekos
picture
##asme
tertular
berbobot
sepucuk
mahmo
berjihad
rahardjo
pangkuan
berakting
hardware
myrtaceae
trenggalek
merac
##ajadi
rpm
bernasib
guide
tuhanku
lily
##onfirmasikan
sever
##buck
##edis
membantai
pare
benfica
persuasi
terkonsentrasi
schl
artikelnya
fenomenal
mangkub
kardus
silikon
akselerasi
sja
##gonis
disep
##sive
sto
azis
menaklukan
moyes
vand
##erc
diaman
ship
ciputat
dzul
zeus
attack
pemisah
dibudidayakan
petinju
##ombo
215
decep
gulung
licik
muchtar
##das
##umat
antiv
pentak
ordin
apec
amelia
sedimen
terbayang
padu
sirna
finance
jelajah
berkepala
sufisme
plt
remote
seksualitas
speaker
mediator
maran
##unes
202
##enceng
kejari
##faq
astro
zaini
lincah
muasal
tunanetra
dall
adak
belantara
##tusuk
krn
khod
berhari
##haq
jala
sail
watu
##enko
##sikan
kuis
deposit
pascal
##tie
##ende
menyegel
bellamy
multik
##naen
pesepak
memerhatikan
komersil
hogwarts
dumb
luf
##arasi
##arity
##idul
mengintegrasikan
##atius
ardi
waras
tool
bireun
goes
clay
ppm
eksperimental
copyright
ligue
stpdn
memaksanya
penyisiran
##wagen
##urupan
orle
asper
asse
berbaur
buangan
tampuk
rambutan
fluor
rapid
ichigo
ditawari
##karnain
lendir
hin
lencana
##gam
kecok
kompeni
andh
sinergi
yudaisme
sederet
charlot
kuliahnya
outlet
houston
berjamaah
##eau
diajar
menagih
menirukan
berbulu
##irejo
##olph
selangkah
berbisik
kalimah
flat
luke
celaka
menggerebek
dumai
trailer
mimpinya
berilmu
cadang
zina
seump
dipopulerkan
makasar
jamil
jalinan
nie
isaac
gli
pank
##ahk
##tiraf
penuk
##tron
masch
##arangeng
sisinya
collins
memasukan
autisme
claude
issue
honduras
raffles
eramuslim
manggung
nino
pong
santan
##yuar
##32
memorial
kerupuk
##alanta
stein
menghafal
berlutut
telantar
subyektif
nger
sinis
cederanya
xix
membahagi
ogos
mck
osi
##38
military
##istrikan
haiwan
olympique
gaf
hingg
xuan
##lag
##akel
artian
terdegradasi
maharani
ptn
ngeri
##ensen
##ious
watson
boles
syahadat
kenderaan
kediktatoran
dayang
fra
ost
##abeth
disember
suz
##ivisi
newmont
feature
1872
absennya
gallas
ambisius
keabsahan
huda
pasan
##mn
mengupas
adhi
menyongsong
pembesaran
dirubah
penghujan
script
##nyalah
novelnya
dimanapun
rhein
kemasukan
franka
productions
futsal
wb
karpet
##osintesis
dibalas
pakem
##obilisasi
magdal
herbert
diagnosa
supply
##ushi
kelud
mendulang
riang
penjel
penjaminan
itali
etn
cameron
sofjan
fey
bernada
baden
hadhari
tabah
slta
luksemb
antusiasme
catania
aang
race
##gg
##sya
asti
berkaca
ditaruh
##ejit
memeras
jalil
boot
pelanggar
martha
matematikawan
seyogyanya
##pang
##hib
##zaki
##tram
kelab
kham
menggantinya
kejaran
jamuan
devi
charter
helium
memvonis
vendor
laksanakan
##lina
terab
##beratkan
##nifer
grac
klenteng
##thing
azas
##kinson
lempar
andalannya
pijakan
pendistribusian
penghayatan
reng
runcing
##aninya
##ikatan
mereb
##trasi
baha
belit
disalahkan
ranieri
luksemburg
##akal
##toc
administration
psk
anatolia
rendra
##atter
bioteknologi
mobilisasi
##entris
bijian
empayar
sbb
nickel
mengunakan
dyah
##agak
##ukses
kerucut
arabi
marcus
soe
grande
kangen
empire
officer
paranormal
kepegawaian
##ahaan
diid
adver
juang
kemang
berlantai
##eca
artist
turb
mursy
hillary
hosting
trilogi
etim
rna
##adilah
##ulas
begitupun
persekitaran
written
fara
heng
suma
1859
technical
kana
oka
##ains
berserakan
atalanta
dennis
##karnaen
##pies
hunter
##nn
meredakan
204
dilestarikan
thomp
bersalin
haruslah
darwis
suratk
nikmati
mimika
aya
##sex
karel
##uliah
mewujud
##ibaratkan
meridian
yuri
menjembatani
akarnya
parsi
ditata
turner
transpl
percikan
simul
antarp
secuk
kodeks
cemara
mapolda
avenue
nanjing
dieja
##elda
aduh
##andy
acid
jargon
siksa
diskon
starting
motog
terelakkan
analysis
protagonis
##laba
##ether
such
korut
mprs
lambatnya
meniadakan
property
kutip
mmi
menyeg
jalankan
fame
dibukanya
digusur
month
michelle
sbg
lanjutkan
##ikil
pengukuhan
kemun
dirham
terjang
idrus
memasuk
pengecekan
privasi
mikroorganisme
movement
bergembira
zimbab
motogp
io
ned
##yukan
injak
melejit
abg
usb
141
herak
voldem
dianalisis
jajarannya
transis
fransiskus
menghiraukan
##ariah
orth
kerusi
menghakimi
brilian
irma
keterangannya
command
presley
mahakam
##yuarat
##asannya
thier
terbel
shev
shoul
bangunannya
berkeley
kebangkrutan
polresta
khattab
kesayangannya
ketulusan
lithuan
senyuman
voldemort
bentang
duc
fland
lami
##pih
menepati
##isha
##ages
persada
172
memeriks
populasinya
##tionary
310
365
##oskam
dialektika
before
fang
##lawanan
##agor
##egera
semaksi
pembengk
pamf
sekat
##ibyo
pendiam
terlantar
acuh
cerob
ulung
##antic
kemenangannya
diadakannya
bibli
habisnya
sadis
penyalur
digulingkan
merobek
kerdil
menghalalkan
leipzig
##iang
##pit
teridentifikasi
anus
penom
kemeja
soem
imamat
##zier
bhutan
drainase
suratkabar
hw
oste
rb
##ikor
berjuluk
subd
keberk
sayembara
oslo
direktori
monte
##ederhan
podium
komentarnya
##arius
kemalangan
##antin
kedewasaan
##angkanya
reaktif
besutan
idenya
allard
mongondow
merespons
melemahnya
jogjakarta
syamsudin
dawud
jengkel
hope
sond
##dirkan
##card
##alie
dikoordin
sense
tifatul
berpijak
empati
gagak
##mpuk
materiil
kapasitasnya
1875
1868
realiti
nawawi
mumpuni
mean
pencetakan
click
##spot
keimigrasi
keanehan
dagangannya
kartasasmita
fs
tany
bernyawa
initi
haryo
##insik
letih
rekam
pangestu
proaktif
tersiar
##ambua
alliance
vice
##bolaan
##37
##anyekan
##turb
interm
resh
##ocokan
kantin
keterp
baba
##harjo
mengantuk
komitmennya
nirlaba
official
##oleransi
junaedi
vac
##itur
##yasa
##ennis
karni
kesinambungan
demand
batalion
peristirah
pendeknya
pahat
kosta
arizona
pascab
zulkarnaen
penebusan
megatron
##yuh
##elet
keupayaan
##ornis
temunggul
korelasi
mungkinkah
million
pencop
oportun
revol
tbc
fellow
##span
##fort
##atman
##aging
release
stain
autobots
menyebarluaskan
sibolga
fay
pach
suntik
##onot
stuart
tawarikh
bontang
##angsanya
terpesona
obsesi
postur
larry
anjungan
widjojo
kinerjanya
mengorganisir
village
vivi
nasrudin
tawang
togo
##akanya
menyuguhkan
##angkaran
dilalap
ener
ikrar
##reas
1867
nabire
dititipkan
zimbabwe
hala
##iser
disemb
mencela
mempermasalahkan
sendang
telat
tomohon
mengangkatnya
bangsal
ainul
semaksimal
poh
ketawa
##ibawa
thur
krab
bayan
persepakbolaan
mangkubumi
hms
##hos
##sid
##abas
terdidik
brok
hanura
##syur
oblast
mascherano
##zag
##ilus
dipertemukan
bertebaran
terkubur
terpakai
menggen
kenang
pedih
pieter
relativitas
selesainya
berkelana
mentari
faqih
orleans
##akn
##inginkan
piutang
flag
perpu
dzikir
karimun
warsawa
kontinu
ralph
kepahlawanan
mulyono
khmer
atambua
ekst
scor
bule
regulator
donny
1876
spiritualitas
advanc
liriknya
egois
beyond
augustus
olimpico
intelligence
secukupnya
vor
##46
##enyak
##older
##umpalan
##essen
basel
pradesh
allardyce
lalang
##satu
seine
##utbah
##ontin
tutut
##fied
##ineas
boros
mujahid
dikonversi
kepunyaan
obrolan
bender
mapp
nib
##ather
seism
dipak
resp
akuarium
between
testim
fluida
nazaruddin
cangkir
menitipkan
keimigrasian
##esakan
prize
alab
karikat
semudah
palace
##toy
allahu
modem
scot
baltik
kademangan
evolution
duke
pesim
sempadan
syafii
kiblat
adakalanya
bhar
soph
##yg
##akura
makl
##afalkan
255
idealis
lengang
colorado
dituntaskan
firefox
ct
lb
##lay
undi
##ebe
amm
dirahasi
terbongkar
##uasin
berpuluh
kenyang
kultus
nonbuj
trick
berwawasan
sadarkan
kompatib
fei
nort
beramb
##ostik
chron
sham
sakitnya
afiliasi
herbal
lucky
quote
ditimpa
pembacanya
susanti
gho
pint
##patri
damak
kehendaki
sjams
kependidikan
seluk
sulfur
charlotte
thierry
gsm
xiao
menimbun
##ungnya
terjal
rece
##olahkan
gren
tell
elegan
deni
hee
mengekspor
litbang
provokator
suspensi
##awari
koefisien
peranannya
remisi
guling
##zzo
belukar
bicarakan
brav
oda
##ilap
##isu
ditopang
blair
jeriken
142
coel
melaksanakannya
hann
1861
machine
pengambilalihan
950
coca
kawas
sanc
tuli
##hoven
##apel
##ilainya
##idas
selesaikan
##anyang
##ewengkan
suy
##ovokasi
umrah
shig
hadith
urea
pemukim
ihwal
perusahan
melipat
jorge
anonim
##aransi
aras
kammi
struc
keempatnya
sapaan
rapper
cikarang
nippon
nissan
cech
lesu
mangan
nong
diot
##tifik
mouse
menyeimbangkan
concern
lompatan
penjelajahan
galang
semusim
grey
jennifer
##tabilkan
pengerahan
gugusan
bengkak
diwawancarai
servis
747
navar
constr
taf
##kg
##kanlah
##oly
antart
depot
##ompo
perbekalan
simple
zulkarnain
himalaya
##ographic
nonbujeter
isis
dansa
pring
usu
bantalan
dipraktikkan
corr
mclaren
usulnya
pewayangan
assegaf
xl
##aida
perbuat
##epam
pertobatan
bii
ditolong
lalui
##engker
toure
tuliskan
epil
prasyarat
mamak
jamie
lajur
pardede
##lic
##dangkan
##ubahan
mencanangkan
pembedaan
kenali
tibo
ayahku
fisiologi
meluasnya
idulfitri
manifesto
retorika
banc
##gina
sejarahwan
menginj
fernandez
paradoks
lid
pick
##hor
##utor
pulog
##aide
kirk
##tualnya
##sider
mengajaknya
penguburan
menyulut
livorno
advent
jawatankuasa
magnus
dilempar
penomoran
nikel
##say
agrib
##tora
bertemakan
lahar
handoko
patriot
kononnya
federation
berekspresi
vertebrata
transistor
pamflet
dirahasiakan
gis
##yth
##apolis
ditek
aires
awet
keluarg
saban
disiagakan
penggalangan
kewib
diprotes
notasi
maim
menangkis
##sip
terawat
berhas
perburuhan
industrialisasi
kesej
nikol
renaisans
merelakan
prambanan
thompson
fail
##isensi
##buwono
anu
merogoh
##action
umbul
pesimis
hadapannya
bibirnya
gregorian
ffi
##lapan
##nja
##ocl
muta
coast
tarikan
dublin
bertaubat
nj
diah
##ulur
##ayam
menjabarkan
kepingan
spar
pasundan
memperjelas
obenberger
kepercaya
##adway
buyut
tenteram
##sha
menstr
agg
pendampingan
pasta
soc
terkunci
bermalam
resensi
##ucle
256
##sense
molekuler
timbunan
memeriahkan
##anao
amri
##ontaminasi
penjamin
purwodadi
progres
yuridis
mushaf
beter
gapura
##zburg
##arengan
##idon
##ehendak
dilukiskan
tangganya
plac
terpopuler
aten
keterpur
conver
devel
##intaro
##organisasian
aim
ditul
memunc
ditanamkan
##ucci
diselimuti
bercabang
memperlancar
4000
memulangkan
membedakannya
##wald
tubi
corruption
jahan
dibantai
truth
terdalam
##ompong
##cial
nyaring
character
bih
cog
ppat
##85
dija
seutuh
##ampanyekan
arit
septu
kontribusinya
yakini
disidangkan
coach
garnis
kampungnya
325
fuk
paw
ronde
##kur
##kham
memupuk
melakoni
ditunjang
petenis
erna
xiang
because
cent
tato
##bean
##adh
##etil
anorganik
penculik
pinggul
cikeas
hurairah
xvii
##wadi
membentangkan
memboikot
amph
sehelai
kasino
permai
skadron
murray
pinus
derasnya
byz
insyaallah
pastoral
##rata
subjektif
rusuh
##reditkan
rubah
##77
dio
##iranti
colspan
flow
##aktifan
berjuta
katholik
outsourcing
septuag
hag
##konya
berantai
terhad
anam
terbengk
mengharap
pltu
##ondria
rasuna
mandela
wireless
bengkalis
plasmod
memonitor
streaming
focus
##ruddin
##bas
##inap
##ingkah
kui
burger
lezat
wibawa
vide
renungkan
mrt
dituduhkan
yuw
##indonesia
pulp
ibtid
##taruhkan
tambi
giall
berwibawa
promotor
bererti
##etangga
police
dimotori
menghimbau
urin
pengelompokan
pamor
ketidakber
donatur
##uyung
moscow
mencicipi
supranatural
keterpurukan
pangga
##odohkan
arman
##ilio
kapoor
tikungan
kesukaan
cibin
gundam
carlton
gondang
jpg
saksama
pajang
sle
##tet
ditumbuh
kelenteng
kerikil
pols
dipelopori
dinda
aircraft
buenos
milimeter
penghibur
pemberangkatan
fix
bapanya
rene
mapolres
sira
pengap
troto
kesilapan
ekspek
rabbi
bergelombang
middle
melingkupi
vernonia
berambisi
cih
##roni
##uwa
##ulak
tree
pernahkah
budayanya
padri
prakteknya
meremehkan
lithuania
goran
kow
##pri
##sah
memilikinya
masinis
diperbuat
##ansemen
152
herodes
proud
excel
clear
bolong
ngaw
##fen
##eburan
pertapa
isabel
terluas
logging
penggalan
nagasaki
fmipa
bmi
mengalam
sepadan
setidak
interval
digiring
kendaraannya
beograd
panasnya
radhi
phillips
pembengkakan
fasa
lng
inang
##udit
asses
benyamin
totok
lumut
stigma
pekerti
austin
wonder
##entur
##adha
##ohi
klungkung
budget
piawai
monica
yogi
commission
480
##vius
southern
kids
scudetto
hc
##atologi
##iket
##imo
merumput
koroner
persie
##injaman
tatap
membahagiakan
##matnya
##nic
##arawa
mengetik
bagasi
##ipes
terbaca
ace
bald
guild
efendi
mundurnya
keterlaluan
belarus
manj
marian
##zam
##udang
dipuja
kesombongan
warri
hermi
koki
fals
hidungnya
peristirahatan
karikatur
berhasrat
kt
lompat
##brid
##aldi
seed
##ismatik
olok
mempercayakan
berduet
kapabilitas
ajukan
##recht
mcdonald
talent
mentalitas
sufyan
nish
shire
sangkar
diguncang
##tier
##eback
##terakan
melel
kemurahan
kerahasi
amanda
##chu
marine
memperbaharui
##tiful
berlusc
sulap
permasalahannya
homogen
rasionalitas
infantri
singkawang
ritme
memaknai
penikmat
rakit
tika
##yuk
##icle
memperbarui
dijangka
crow
dedikasi
##akumbuh
hijriyah
hernand
peminjaman
akk
komedian
pelamar
dideportasi
ambalat
puisinya
sintetis
meluapnya
guruh
##eramah
anast
rumahtangga
permain
##ards
bakauh
roes
##patif
unix
tenggelamnya
species
mengasingkan
meniup
glasgow
plasmodium
fog
##udhu
##endiri
tabir
karangasem
##orossi
merayu
pengib
succ
diputus
dre
posy
##aminaceae
disebuah
payakumbuh
freud
bnp
darwinisme
hizbullah
##anannya
##ahara
diaktifkan
arakan
save
dipajang
neil
##ongko
stafnya
1877
constitu
sitomp
balsaminaceae
gaga
menkes
mengetuk
##abangan
setapak
halangi
##urance
chick
silv
##onduktor
loi
nanas
sulungnya
subhanahu
berlusconi
##n1
mengukir
melenceng
dimunculkan
##inganan
maat
ngel
montre
viol
sector
1874
profesinya
hiruk
broadway
bertaq
obligor
werder
gebang
maman
##gil
mengitari
kerudung
poltabes
files
kekesalan
minibus
skim
muria
mempraktikkan
##venir
##uyen
##jatanya
range
agribisnis
komuter
##icia
kurva
jenius
siku
sikka
weekly
luft
seutuhnya
cibinong
aver
pisah
anakan
##ambak
##uasainya
laf
kapus
lapas
better
perekrutan
retail
pikuk
vegetasi
eduardo
tanzania
kemukakan
sekembalinya
mugh
##opr
belalang
kalk
##point
azahari
yudistira
menyelesaikannya
instrument
mempersulit
kosmologi
berkeras
torymus
posyandu
banggai
xen
##osinya
berbakti
biom
##char
sesosok
berhutang
awalan
mengambilnya
door
doakan
diwaspadai
clarke
gardu
magdalena
rujuk
rrt
sora
##pd
anemia
penawar
pemodal
pembom
chop
malangnya
kumar
doel
feod
srintil
gurita
creative
pranata
portofolio
hentikan
##kia
##iansyah
amn
kaun
plta
magma
vieira
ketidakhadiran
bertubi
didiagn
trotoar
gebr
##ax
##hot
##hart
##ahman
kerapatan
pelantun
musto
angklung
crim
firmansyah
sindang
##giantoro
elisabeth
memudar
modalnya
termahal
hills
penipu
ditumpangi
bakauheni
wort
##wir
##olish
anung
siber
senar
berdo
yosua
joni
vh
##86
prok
membidik
reina
dihalau
obesitas
kegig
koptik
landak
canber
diberlakukannya
jeong
republic
dealer
crystal
mentransfer
herita
##zel
sebeg
bran
bath
alamin
bersiaga
diamond
melempari
pamp
panda
solah
##eed
##gom
##erman
##alen
sepantas
biner
mewawancarai
edmund
hermene
##tabel
ditipu
mountain
developer
rice
teruji
mendidih
sabu
mencarinya
antis
kesurupan
korawa
palopo
teat
anders
##odeon
##tabek
survival
assalamualaikum
given
menyambangi
sapa
waria
menantikan
penunjuk
##aluinya
berbuntut
keberagaman
sinaga
##efektif
##ampiaskan
rasial
dikemudikan
nini
rana
tina
##bish
##edjo
aransemen
dijabarkan
##quer
syaratnya
tawon
##rolet
gemetar
jln
jonas
eugene
beautiful
should
koko
##emanan
##etarkan
##iho
##adius
##egu
##eduh
dipantau
thera
gempol
mukti
hymed
effect
empuk
menaati
muly
terpaku
pangandaran
##essy
275
defense
hyd
makamnya
connec
darmawan
lanskap
mikir
nulis
sandang
wala
berumah
##ube
##ambangkan
akhiran
terkontrol
1400
protocol
lele
aksesoris
stars
laluan
flying
hkbp
morfologi
queensland
ibtidaiyah
gain
hoh
hoki
##ulya
pentag
paste
mesyuarat
dicoret
meninggi
madonna
pertemuannya
peranakan
420
diasumsikan
rans
riko
##cat
digi
sewaan
##itro
##asium
##endirian
things
didera
walhasil
substan
guardi
client
memandangkan
##law
berucap
amil
mencadangkan
separ
mahayana
rakai
##odetabek
bakalan
arbianto
nago
##mia
##aryo
prec
kepri
spider
display
peleton
kecukupan
persebaran
grogol
sybra
##ongkol
wahabi
robek
christina
wajo
achi
bae
##estra
##idad
##ossa
##anty
membanjiri
kernel
elvis
digalakkan
herge
buleleng
gembong
winter
##kominfo
constant
dicerna
anyaman
perabot
volkswagen
##haan
berimbang
perincian
##ayama
seremoni
arogan
##ework
ketan
menghasut
tuah
lembang
irene
situasinya
regenerasi
episod
parahnya
memandangnya
tagged
mengesampingkan
freddy
atmosfir
massimo
dac
hack
tercium
##perindag
pengumpul
##intal
muller
mewariskan
pkps
1869
bengali
pengawet
letakkan
sven
zhi
##lov
##kor
##ikawa
peren
indiana
harold
diserah
berkar
diramalkan
jerat
perjump
gambarnya
suhatman
diseret
investig
underground
1840
didaulat
hajatan
heaven
goryeo
transplantasi
ery
intrik
##olor
barton
mendel
##chus
rumahan
paloh
lipatan
folder
metafisika
canberra
gonc
stiker
kurir
terpendam
##uca
penghakiman
panzer
badar
disibukkan
rusuk
dibangunnya
yusgiantoro
pembentukannya
##klusi
jimly
##antulkan
classic
sda
##hyang
##eness
menul
termu
menyia
belok
khabar
udayana
penggagas
tebet
horis
granada
##ohongi
hunting
klimaks
yeremia
joshua
guardiola
pintas
menag
##onta
mann
ketatan
atlan
pete
kudu
differ
memperketat
mainstream
husni
sayapnya
konstruktif
keteguhan
kirimkan
honorer
oxyop
hebr
##angatan
sebilah
##eway
temanku
bersusah
maru
##undung
mengkritisi
tax
yudikatif
beauty
mengagetkan
##bility
apatah
dju
jip
wet
wester
zee
##euh
##mobil
##95
##araskan
meminjamkan
##ident
206
dikag
suman
libert
berjil
terstruktur
kolabor
menginvasi
menanggalkan
titel
ketupat
aviation
hodg
ome
zig
peradangan
##teria
menjurus
hardi
bertah
dea
robbie
osas
vicente
origin
keharmonisan
dud
wiz
##cri
adsense
dikons
persingg
tanganku
muam
##ouver
login
ambarawa
eksportir
bajakan
course
telecom
qian
raba
##atia
##bug
berhij
konselor
income
debitur
pebr
rui
##kohol
##hui
dies
##agari
konver
timbangan
setoran
upt
sutejo
conserv
bpkp
title
yunior
schumacher
termuat
mentega
islah
spm
##saf
riza
151
menangkapnya
rapbn
reserve
transformers
contact
both
yuki
diimbau
semeru
##anyu
dipancarkan
destin
embar
tokohnya
legalitas
raut
pramoed
blueto
give
nila
berem
perah
##osin
peleburan
sedari
tetua
genosida
mauri
irs
##ronim
schuster
ketidakj
imannya
friendly
##tropis
pengibaran
hph
##wet
##fak
adakan
apalah
mencoblos
kedeng
dibenci
berpesta
##owati
kurt
dihidangkan
scar
scien
faktual
metana
kakashi
micr
prodi
bpd
tatapan
jakut
jakob
dipanaskan
bersimpati
##sance
dibelakang
terjerat
terpampang
blau
metam
mendiknas
medicine
mack
##nell
memalsukan
bry
sinonim
##atore
madzhab
https
quot
mikroba
rasisme
dusta
nyak
wito
yok
##mara
##ubern
##arab
mengunci
##upe
third
##inavia
cerminan
##atihan
##bukit
triwulan
tuannya
antrian
##acional
disekitarnya
deda
oak
##ikun
##tica
apok
dipidana
dihajar
dicuci
sembiring
syarief
lombard
peribahasa
aktingnya
pneumonia
##yata
dievaluasi
masal
##angkasan
trit
gerard
shut
diberitahukan
invent
terhingga
luca
cakung
garnisun
terbengkalai
jd
pim
##eong
##dorf
##keh
dion
keep
adb
kepanger
membabi
apotek
mendung
rejang
choi
khutbah
willy
bertakwa
liem
diberkati
kppu
rusdi
kerjaan
##mojo
jimat
viking
jajanan
hermione
##lock
##gol
##goro
##vestasikan
serbu
mansyur
penye
penyed
plut
symp
pakuan
bayer
edison
rajab
woods
##amangaraja
nickelodeon
kencan
mudi
twe
##yuan
##umun
meme
adis
diparkir
utan
##erius
dinon
brid
berjudi
romeo
##show
antivirus
panggabean
ekspektasi
mustofa
kepangeranan
pia
tus
yb
##apnya
keringanan
polwil
##ocentr
##haen
keteraturan
##tupan
efeknya
##dayanti
##ulturasi
buntutnya
pellegr
pramoedya
##opul
kemudi
162
neon
kegubern
difilmkan
early
##ledore
safety
kalibata
montreal
##agromy
menjam
menyuap
actor
##fav
ptpn
afric
wolfsburg
perilakunya
lamiales
glik
wow
wendy
##syi
##arram
kemiliter
hendarso
tangisan
keahliannya
mallarangeng
berseragam
meluangkan
terjerumus
asimilasi
bluetooth
##agromyza
aan
mif
tatang
##ited
adri
prilaku
sekur
ishaq
abis
##awancara
##kaard
##mpahan
anshar
santosa
ginanjar
brahma
cornelis
semangatnya
kegubernuran
hair
rima
sni
selingkuh
genom
pose
mewabah
mempertanggungjawabkan
suksesnya
verona
beralkohol
hipp
dimaknai
cendawan
lisbon
location
gengsi
horisontal
pebruari
bodi
mengada
alunan
mussol
##afa
formulasi
perputaran
clar
baptisan
staat
writer
pocong
pesepakbola
menyegarkan
ejak
kwar
##haka
diincar
agil
berbarengan
berkongsi
bersenang
kebo
austral
lamiaceae
menggeledah
bergelut
rijkaard
ekstensif
##olep
selokan
##oty
realisme
menghajar
##ivan
iring
guid
##onius
magpies
lebarnya
perwalian
pengecut
imbas
disinilah
nind
alvin
mej
angkatnya
malamnya
incaran
biarawati
foster
rizky
rampasan
adjie
mussolini
cawan
saga
tusukan
##hem
selebar
seramai
mencoret
diguyur
idaman
mendorongnya
memperburuk
ketegasan
diasosiasikan
##idion
##lowakia
pragmatis
kesekian
osasuna
oed
##47
reason
kuad
mahalnya
##ustrasikan
ext
##rates
bpom
kesukaran
##ogoti
rayuan
penumpangnya
terbarukan
circle
nons
vita
##kakan
keith
##aign
reagan
ingkar
##aff
menggusur
kost
instrumental
1863
menaungi
penggeledahan
berkendara
giallorossi
##olisis
##itsu
adip
saul
siahaan
tools
persipura
hewani
berkeluarga
impul
duluan
berkecepatan
organisasinya
nestor
democracy
role
tsa
vanc
penungg
##uhu
penguji
berseri
##ogenik
mancur
nabati
terakreditasi
merengues
shevchenko
alabama
lol
lusi
##nin
terin
antim
##ebloskan
kerah
pendaya
dilakoni
biokimia
umb
terlarut
depag
pencakar
angke
koleg
esper
wave
penemuannya
agraris
ketatanegaraan
uf
##fron
selalunya
203
artif
aminah
perkap
permesta
kening
patahan
##emann
hutomo
asuhannya
##oterapi
maurice
euk
eut
lung
##udahan
pengintai
##isius
kedaluwarsa
##ovsky
1815
acaranya
pemberani
diberikannya
carbon
krisdayanti
rosul
lasem
mengecil
ampli
hafal
reshuffle
##inanya
##eha
##otov
israil
##ipkan
rex
berduri
build
gelarnya
bantuannya
sasak
pamer
mold
avian
aqua
giant
##lunto
kepercayaannya
cpu
وا
ina
##user
##adiahkan
amary
austronesia
sawahlunto
rotten
pemenangnya
##aperadilan
istiqlal
cangkang
nr
sobat
##akir
##agh
amy
viktor
najis
menorehkan
penginjilan
baekje
eye
iberia
mami
##utika
tradi
rohaniwan
leonard
genggaman
dumbledore
pulogadung
jangg
nadia
menantunya
##edan
pengur
paska
terjadilah
dino
shik
programnya
wide
suryadi
churchill
emansi
cpo
jorong
raib
##mono
##bing
##wasta
##amak
##ianisme
pemaparan
ale
berbatu
berbaju
kesannya
didikan
menemuinya
metrik
maksudkan
##estro
##buana
pelumas
antv
enri
didiskusikan
bertetangga
obi
selesa
samba
didiknya
fortune
perabotan
riri
zw
##55
##ujar
rebutan
murphy
pembersih
ukir
potent
javas
pertumpahan
zenit
dianggarkan
menneg
##osialisasi
sentuh
##master
geni
minh
##ijder
##izu
galileo
berpenghasilan
mob
##mudi
##uha
kelar
depd
tanggungan
bermar
161
kolega
planning
djamal
tehnik
hidrokarbon
menggeluti
japanese
rangkuman
##mor
##core
diimbangi
prangko
serasi
carn
hening
##uyun
works
tobing
titipan
##bawahi
##ilau
menga
mencerd
interface
lao
subk
galangan
tunggul
lotus
optimus
hancurnya
trinitas
cekoslowakia
##turbasi
rebus
xy
searah
##olus
keburu
kekag
cepatnya
mayang
##matinya
sampingnya
saintifik
bondan
##aili
##ehabilitasi
##edug
biadab
##ositas
sesaji
luarnya
pakis
sasarannya
representatif
casil
fic
guci
##eal
mencintainya
khome
mitigasi
##grana
economics
utrech
##sat
##amalan
##beri
##angkiti
disandang
##mizi
pencoblos
ite
jabodetabek
tembikar
libanon
chievo
columbus
koleganya
fuj
##ahayaan
##alt
serg
minatnya
tubuhku
ngerti
saba
supervis
menghubung
sitkom
cctv
archit
singkil
pendayagunaan
bunc
lingg
mosi
membahu
mendobrak
siar
##ectus
menggetarkan
blank
muri
binasa
##awija
episk
yudea
tunku
tukas
syahwat
kehendaknya
menghadapinya
pompey
adelaide
sneijder
dengarkan
##omah
##ewat
sediakan
utami
mempersilakan
generik
depkeu
gunting
rekap
edge
galak
bonang
luciano
rebound
##tajam
perantaraan
pengikat
seku
etos
jantungnya
miras
effendy
lorenzo
atri
jafar
pemutar
##andikan
troy
##ocar
tertata
##madja
##ements
pertumbuhannya
institusional
banyuasin
menetas
zionisme
##xxxx
excell
khomeini
eind
nut
##ouk
darimana
##otase
barth
kotabaru
uth
kaur
kehangatan
menggenggam
nyanyi
##quel
tengger
natuna
parigi
thought
sehinggalah
kekuningan
amaryll
ramping
##iak
##jito
##atisme
##entangnya
##ogaster
frustrasi
##laut
lahiri
mbc
geger
wais
##zawa
sebidang
distorsi
##gunung
pembor
tentena
pei
palawija
telunjuk
murung
rame
round
temple
leluhurnya
easy
##lab
##200
##amura
ketuanya
##ainkannya
tiber
tiupan
##lius
crime
does
tekstual
mengikutsertakan
teorema
hokkai
homoseks
meminimalkan
pohan
##aratkan
disain
buktikan
athe
sunah
lansia
fotok
##pekulasi
didiami
economy
blancos
masif
tumpul
##wai
##jap
##pera
melindung
pengeks
hukumannya
pandia
yaa
pkk
weber
molotov
syahrir
exxonmobil
menstruasi
##tiap
membinasakan
terlintas
ekologis
menghembuskan
##anie
pluto
menerangi
tomato
tunda
celsius
1980an
husin
##losan
responsi
multilateral
mencerdaskan
fana
fahaman
sali
##ratnya
termo
##egangan
meluluskan
warning
industries
garasi
sanalah
##quin
simpsons
dimasuki
konduktor
bermartabat
casillas
gosp
##haw
menas
berimp
anita
ananta
annisa
pris
karcis
bersayap
dimeriahkan
bertek
bryan
saragih
sinag
basy
kansas
retribusi
julai
##kb
##erek
another
indrawati
paser
ust
gros
jarinya
tipikor
bercahaya
gilbert
lengannya
moderen
potentilla
amaryllidaceae
jeng
##zyn
berbukit
alga
##otak
keda
shol
pencetus
dicamp
##tries
ons
bergairah
##etulkan
talangan
termak
relevansi
terperosok
muslihat
menasihati
hokkaido
densus
zin
zaki
setu
reyn
mempererat
grim
mater
nget
edu
herba
##ithec
dekret
tolok
aidit
orgasme
bicaranya
meleset
witoelar
brip
لا
##loh
berar
##estr
semarak
ketara
benef
sesamanya
jamaika
pencahayaan
perantau
penyergapan
mccar
pnb
retno
##drome
christine
pionir
hau
jap
kumpulkan
qod
vet
##fusi
diaw
##aia
##iliran
##agne
memodifikasi
##ihannya
kepi
orangutan
harkat
warren
kuah
##ucuti
guitar
colin
##entraman
borussia
##carpus
voor
ketertinggalan
digerebek
mengucap
klimatologi
decepticons
ditumbuhi
scientific
typ
meranti
[...]
